{"version": "1.0", "truncation": null, "padding": null, "added_tokens": [{"id": 149725, "content": "<|endoftext|>", "single_word": false, "lstrip": false, "rstrip": false, "normalized": false, "special": true}, {"id": 149726, "content": "<|im_start|>", "single_word": false, "lstrip": false, "rstrip": false, "normalized": false, "special": true}, {"id": 149727, "content": "<|im_end|>", "single_word": false, "lstrip": false, "rstrip": false, "normalized": false, "special": true}, {"id": 149728, "content": "<|object_ref_start|>", "single_word": false, "lstrip": false, "rstrip": false, "normalized": false, "special": true}, {"id": 149729, "content": "<|object_ref_end|>", "single_word": false, "lstrip": false, "rstrip": false, "normalized": false, "special": true}, {"id": 149730, "content": "<|box_start|>", "single_word": false, "lstrip": false, "rstrip": false, "normalized": false, "special": true}, {"id": 149731, "content": "<|box_end|>", "single_word": false, "lstrip": false, "rstrip": false, "normalized": false, "special": true}, {"id": 149732, "content": "<|quad_start|>", "single_word": false, "lstrip": false, "rstrip": false, "normalized": false, "special": true}, {"id": 149733, "content": "<|quad_end|>", "single_word": false, "lstrip": false, "rstrip": false, "normalized": false, "special": true}, {"id": 149734, "content": "<|vision_start|>", "single_word": false, "lstrip": false, "rstrip": false, "normalized": false, "special": true}, {"id": 149735, "content": "<|vision_end|>", "single_word": false, "lstrip": false, "rstrip": false, "normalized": false, "special": true}, {"id": 149736, "content": "<|vision_pad|>", "single_word": false, "lstrip": false, "rstrip": false, "normalized": false, "special": true}, {"id": 149737, "content": "<|image_pad|>", "single_word": false, "lstrip": false, "rstrip": false, "normalized": false, "special": true}, {"id": 149738, "content": "<|video_pad|>", "single_word": false, "lstrip": false, "rstrip": false, "normalized": false, "special": true}, {"id": 149739, "content": "<tool_call>", "single_word": false, "lstrip": false, "rstrip": false, "normalized": false, "special": false}, {"id": 149740, "content": "</tool_call>", "single_word": false, "lstrip": false, "rstrip": false, "normalized": false, "special": false}, {"id": 149741, "content": "<|fim_prefix|>", "single_word": false, "lstrip": false, "rstrip": false, "normalized": false, "special": false}, {"id": 149742, "content": "<|fim_middle|>", "single_word": false, "lstrip": false, "rstrip": false, "normalized": false, "special": false}, {"id": 149743, "content": "<|fim_suffix|>", "single_word": false, "lstrip": false, "rstrip": false, "normalized": false, "special": false}, {"id": 149744, "content": "<|fim_pad|>", "single_word": false, "lstrip": false, "rstrip": false, "normalized": false, "special": false}, {"id": 149745, "content": "<|repo_name|>", "single_word": false, "lstrip": false, "rstrip": false, "normalized": false, "special": false}, {"id": 149746, "content": "<|file_sep|>", "single_word": false, "lstrip": false, "rstrip": false, "normalized": false, "special": false}, {"id": 149747, "content": "<tool_response>", "single_word": false, "lstrip": false, "rstrip": false, "normalized": false, "special": false}, {"id": 149748, "content": "</tool_response>", "single_word": false, "lstrip": false, "rstrip": false, "normalized": false, "special": false}, {"id": 149749, "content": "<think>", "single_word": false, "lstrip": false, "rstrip": false, "normalized": false, "special": false}, {"id": 149750, "content": "</think>", "single_word": false, "lstrip": false, "rstrip": false, "normalized": false, "special": false}, {"id": 149751, "content": "<|mask|>", "single_word": false, "lstrip": false, "rstrip": false, "normalized": false, "special": true}], "normalizer": {"type": "NFC"}, "pre_tokenizer": {"type": "Sequence", "pretokenizers": [{"type": "Split", "pattern": {"Regex": "(?i:'s|'t|'re|'ve|'m|'ll|'d)|[^\\r\\n\\p{L}\\p{N}]?\\p{L}+|\\p{N}| ?[^\\s\\p{L}\\p{N}]+[\\r\\n]*|\\s*[\\r\\n]+|\\s+(?!\\S)|\\s+"}, "behavior": "Isolated", "invert": false}, {"type": "ByteLevel", "add_prefix_space": false, "trim_offsets": true, "use_regex": false}]}, "post_processor": {"type": "ByteLevel", "add_prefix_space": false, "trim_offsets": false, "use_regex": false}, "decoder": {"type": "ByteLevel", "add_prefix_space": true, "trim_offsets": true, "use_regex": true}, "model": {"type": "BPE", "dropout": null, "unk_token": null, "continuing_subword_prefix": "", "end_of_word_suffix": "", "fuse_unk": false, "byte_fallback": false, "ignore_merges": false, "vocab": {"!": 0, "\"": 1, "#": 2, "$": 3, "%": 4, "&": 5, "'": 6, "(": 7, ")": 8, "*": 9, "+": 10, ",": 11, "-": 12, ".": 13, "/": 14, "0": 15, "1": 16, "2": 17, "3": 18, "4": 19, "5": 20, "6": 21, "7": 22, "8": 23, "9": 24, ":": 25, ";": 26, "<": 27, "=": 28, ">": 29, "?": 30, "@": 31, "A": 32, "B": 33, "C": 34, "D": 35, "E": 36, "F": 37, "G": 38, "H": 39, "I": 40, "J": 41, "K": 42, "L": 43, "M": 44, "N": 45, "O": 46, "P": 47, "Q": 48, "R": 49, "S": 50, "T": 51, "U": 52, "V": 53, "W": 54, "X": 55, "Y": 56, "Z": 57, "[": 58, "\\": 59, "]": 60, "^": 61, "_": 62, "`": 63, "a": 64, "b": 65, "c": 66, "d": 67, "e": 68, "f": 69, "g": 70, "h": 71, "i": 72, "j": 73, "k": 74, "l": 75, "m": 76, "n": 77, "o": 78, "p": 79, "q": 80, "r": 81, "s": 82, "t": 83, "u": 84, "v": 85, "w": 86, "x": 87, "y": 88, "z": 89, "{": 90, "|": 91, "}": 92, "~": 93, "¡": 94, "¢": 95, "£": 96, "¤": 97, "¥": 98, "¦": 99, "§": 100, "¨": 101, "©": 102, "ª": 103, "«": 104, "¬": 105, "®": 106, "¯": 107, "°": 108, "±": 109, "²": 110, "³": 111, "´": 112, "µ": 113, "¶": 114, "·": 115, "¸": 116, "¹": 117, "º": 118, "»": 119, "¼": 120, "½": 121, "¾": 122, "¿": 123, "À": 124, "Á": 125, "Â": 126, "Ã": 127, "Ä": 128, "Å": 129, "Æ": 130, "Ç": 131, "È": 132, "É": 133, "Ê": 134, "Ë": 135, "Ì": 136, "Í": 137, "Î": 138, "Ï": 139, "Ð": 140, "Ñ": 141, "Ò": 142, "Ó": 143, "Ô": 144, "Õ": 145, "Ö": 146, "×": 147, "Ø": 148, "Ù": 149, "Ú": 150, "Û": 151, "Ü": 152, "Ý": 153, "Þ": 154, "ß": 155, "à": 156, "á": 157, "â": 158, "ã": 159, "ä": 160, "å": 161, "æ": 162, "ç": 163, "è": 164, "é": 165, "ê": 166, "ë": 167, "ì": 168, "í": 169, "î": 170, "ï": 171, "ð": 172, "ñ": 173, "ò": 174, "ó": 175, "ô": 176, "õ": 177, "ö": 178, "÷": 179, "ø": 180, "ù": 181, "ú": 182, "û": 183, "ü": 184, "ý": 185, "þ": 186, "ÿ": 187, "Ā": 188, "ā": 189, "Ă": 190, "ă": 191, "Ą": 192, "ą": 193, "Ć": 194, "ć": 195, "Ĉ": 196, "ĉ": 197, "Ċ": 198, "ċ": 199, "Č": 200, "č": 201, "Ď": 202, "ď": 203, "Đ": 204, "đ": 205, "Ē": 206, "ē": 207, "Ĕ": 208, "ĕ": 209, "Ė": 210, "ė": 211, "Ę": 212, "ę": 213, "Ě": 214, "ě": 215, "Ĝ": 216, "ĝ": 217, "Ğ": 218, "ğ": 219, "Ġ": 220, "ġ": 221, "Ģ": 222, "ģ": 223, "Ĥ": 224, "ĥ": 225, "Ħ": 226, "ħ": 227, "Ĩ": 228, "ĩ": 229, "Ī": 230, "ī": 231, "Ĭ": 232, "ĭ": 233, "Į": 234, "į": 235, "İ": 236, "ı": 237, "Ĳ": 238, "ĳ": 239, "Ĵ": 240, "ĵ": 241, "Ķ": 242, "ķ": 243, "ĸ": 244, "Ĺ": 245, "ĺ": 246, "Ļ": 247, "ļ": 248, "Ľ": 249, "ľ": 250, "Ŀ": 251, "ŀ": 252, "Ł": 253, "ł": 254, "Ń": 255, "ĠĠ": 256, "ĠĠĠĠ": 257, "in": 258, "Ġt": 259, "ĠĠĠĠĠĠĠĠ": 260, "er": 261, "ĠĠĠ": 262, "on": 263, "Ġa": 264, "re": 265, "at": 266, "st": 267, "en": 268, "or": 269, "Ġth": 270, "ĊĊ": 271, "Ġc": 272, "le": 273, "Ġs": 274, "it": 275, "an": 276, "ar": 277, "al": 278, "Ġthe": 279, ";Ċ": 280, "Ġp": 281, "Ġf": 282, "ou": 283, "Ġ=": 284, "is": 285, "ĠĠĠĠĠĠĠ": 286, "ing": 287, "es": 288, "Ġw": 289, "ion": 290, "ed": 291, "ic": 292, "Ġb": 293, "Ġd": 294, "et": 295, "Ġm": 296, "Ġo": 297, "ĉĉ": 298, "ro": 299, "as": 300, "el": 301, "ct": 302, "nd": 303, "Ġin": 304, "Ġh": 305, "ent": 306, "id": 307, "Ġn": 308, "am": 309, "ĠĠĠĠĠĠĠĠĠĠĠ": 310, "Ġto": 311, "Ġre": 312, "--": 313, "Ġ{": 314, "Ġof": 315, "om": 316, ");Ċ": 317, "im": 318, "čĊ": 319, "Ġ(": 320, "il": 321, "//": 322, "Ġand": 323, "ur": 324, "se": 325, "Ġl": 326, "ex": 327, "ĠS": 328, "ad": 329, "Ġ\"": 330, "ch": 331, "ut": 332, "if": 333, "**": 334, "Ġ}": 335, "em": 336, "ol": 337, "ĠĠĠĠĠĠĠĠĠĠĠĠĠĠĠĠ": 338, "th": 339, ")Ċ": 340, "Ġ{Ċ": 341, "Ġg": 342, "ig": 343, "iv": 344, ",Ċ": 345, "ce": 346, "od": 347, "Ġv": 348, "ate": 349, "ĠT": 350, "ag": 351, "ay": 352, "Ġ*": 353, "ot": 354, "us": 355, "ĠC": 356, "Ġst": 357, "ĠI": 358, "un": 359, "ul": 360, "ue": 361, "ĠA": 362, "ow": 363, "Ġ'": 364, "ew": 365, "Ġ<": 366, "ation": 367, "()": 368, "Ġfor": 369, "ab": 370, "ort": 371, "um": 372, "ame": 373, "Ġis": 374, "pe": 375, "tr": 376, "ck": 377, "âĢ": 378, "Ġy": 379, "ist": 380, "----": 381, ".ĊĊ": 382, "he": 383, "Ġe": 384, "lo": 385, "ĠM": 386, "Ġbe": 387, "ers": 388, "Ġon": 389, "Ġcon": 390, "ap": 391, "ub": 392, "ĠP": 393, "ĠĠĠĠĠĠĠĠĠĠĠĠĠĠĠ": 394, "ass": 395, "int": 396, ">Ċ": 397, "ly": 398, "urn": 399, "Ġ$": 400, ";ĊĊ": 401, "av": 402, "port": 403, "ir": 404, "->": 405, "nt": 406, "ction": 407, "end": 408, "Ġde": 409, "ith": 410, "out": 411, "turn": 412, "our": 413, "ĠĠĠĠĠ": 414, "lic": 415, "res": 416, "pt": 417, "==": 418, "Ġthis": 419, "Ġwh": 420, "Ġif": 421, "ĠD": 422, "ver": 423, "age": 424, "ĠB": 425, "ht": 426, "ext": 427, "=\"": 428, "Ġthat": 429, "****": 430, "ĠR": 431, "Ġit": 432, "ess": 433, "ĠF": 434, "Ġr": 435, "os": 436, "and": 437, "Ġas": 438, "ect": 439, "ke": 440, "rom": 441, "Ġ//": 442, "con": 443, "ĠL": 444, "(\"": 445, "qu": 446, "lass": 447, "Ġwith": 448, "iz": 449, "de": 450, "ĠN": 451, "Ġal": 452, "op": 453, "up": 454, "get": 455, "Ġ}Ċ": 456, "ile": 457, "Ġan": 458, "ata": 459, "ore": 460, "ri": 461, "Ġpro": 462, ";čĊ": 463, "ĉĉĉĉ": 464, "ter": 465, "ain": 466, "ĠW": 467, "ĠE": 468, "Ġcom": 469, "Ġreturn": 470, "art": 471, "ĠH": 472, "ack": 473, "import": 474, "ublic": 475, "Ġor": 476, "est": 477, "ment": 478, "ĠG": 479, "able": 480, "Ġ-": 481, "ine": 482, "ill": 483, "ind": 484, "ere": 485, "::": 486, "ity": 487, "Ġ+": 488, "Ġtr": 489, "elf": 490, "ight": 491, "('": 492, "orm": 493, "ult": 494, "str": 495, "..": 496, "\",": 497, "Ġyou": 498, "ype": 499, "pl": 500, "Ġnew": 501, "Ġj": 502, "Ġfrom": 503, "Ġex": 504, "ĠO": 505, "ld": 506, "Ġ[": 507, "oc": 508, ":Ċ": 509, "Ġse": 510, "Ġle": 511, "--------": 512, ".s": 513, "{Ċ": 514, "',": 515, "ant": 516, "Ġat": 517, "ase": 518, ".c": 519, "Ġch": 520, "</": 521, "ave": 522, "ang": 523, "Ġare": 524, "Ġint": 525, "âĢĻ": 526, "_t": 527, "ert": 528, "ial": 529, "act": 530, "}Ċ": 531, "ive": 532, "ode": 533, "ost": 534, "Ġclass": 535, "Ġnot": 536, "og": 537, "ord": 538, "alue": 539, "all": 540, "ff": 541, "();Ċ": 542, "ont": 543, "ime": 544, "are": 545, "ĠU": 546, "Ġpr": 547, "Ġ:": 548, "ies": 549, "ize": 550, "ure": 551, "Ġby": 552, "ire": 553, "Ġ}ĊĊ": 554, ".p": 555, "Ġsh": 556, "ice": 557, "ast": 558, "ption": 559, "tring": 560, "ok": 561, "__": 562, "cl": 563, "##": 564, "Ġhe": 565, "ard": 566, ").": 567, "Ġ@": 568, "iew": 569, "ĉĉĉ": 570, "Ġwas": 571, "ip": 572, "this": 573, "Ġu": 574, "ĠThe": 575, "ide": 576, "ace": 577, "ib": 578, "ac": 579, "rou": 580, "Ġwe": 581, "ject": 582, "Ġpublic": 583, "ak": 584, "ve": 585, "ath": 586, "oid": 587, "Ġ=>": 588, "ust": 589, "que": 590, "Ġres": 591, "))": 592, "'s": 593, "Ġk": 594, "ans": 595, "yst": 596, "unction": 597, "********": 598, "Ġi": 599, "Ġus": 600, "pp": 601, "one": 602, "ail": 603, "====": 604, "name": 605, "Ġstr": 606, "Ġ/": 607, "Ġ&": 608, "ach": 609, "div": 610, "ystem": 611, "ell": 612, "Ġhave": 613, "err": 614, "ould": 615, "ull": 616, "pon": 617, "ĠJ": 618, "_p": 619, "Ġ==": 620, "ign": 621, "St": 622, ".Ċ": 623, "Ġpl": 624, ");ĊĊ": 625, "form": 626, "put": 627, "ount": 628, "}ĊĊ": 629, "dd": 630, "ite": 631, "Ġget": 632, "rr": 633, "ome": 634, "ĠâĢ": 635, "aram": 636, "cc": 637, "Ġ*/": 638, "ER": 639, "In": 640, "les": 641, "_s": 642, "ong": 643, "ie": 644, "Ġcan": 645, "ĠV": 646, "erv": 647, "pr": 648, "Ġun": 649, "row": 650, "ber": 651, "Ġdo": 652, "ll": 653, "Ġel": 654, "Ġself": 655, "ated": 656, "ary": 657, "Ġ.": 658, "']": 659, "ud": 660, "Ġen": 661, "ĠTh": 662, "te": 663, "_c": 664, "uct": 665, "Ġab": 666, "ork": 667, ".get": 668, "Ġ#": 669, "aw": 670, "ress": 671, "ob": 672, "Name": 673, "app": 674, "['": 675, "Ġall": 676, "ory": 677, "ition": 678, "ance": 679, "ear": 680, "Ġcont": 681, "vent": 682, "ia": 683, "Ġwill": 684, "IN": 685, "ĠĠĠĠĠĠĠĠĠ": 686, "return": 687, "Ġ</": 688, "data": 689, ")ĊĊ": 690, "Re": 691, "ple": 692, "ild": 693, "ther": 694, "Ġyour": 695, "\"Ċ": 696, "($": 697, "Ġout": 698, "),": 699, "Ġhas": 700, "String": 701, "so": 702, "Ġup": 703, "ax": 704, "Ġdef": 705, "Ġbo": 706, "ge": 707, "alse": 708, "ON": 709, "per": 710, "ich": 711, "Ġbut": 712, "ĠĊ": 713, "Ġ_": 714, "_m": 715, "add": 716, "quest": 717, "odel": 718, "self": 719, "ery": 720, "ft": 721, "ens": 722, "////": 723, "ake": 724, ".C": 725, "Ġgo": 726, "Ġfunction": 727, "ĠK": 728, "ivate": 729, "Ġim": 730, "Ġconst": 731, ".t": 732, "Ġ*/Ċ": 733, ");čĊ": 734, "Ġvoid": 735, "Ġset": 736, "ĠSystem": 737, "cri": 738, "()Ċ": 739, "li": 740, "ĉif": 741, ".m": 742, "ally": 743, "set": 744, "ep": 745, "âĢĻs": 746, "bo": 747, "def": 748, "',Ċ": 749, "Ġme": 750, "Ġ!": 751, "atch": 752, "\">": 753, "\",Ċ": 754, "ec": 755, "ĠIn": 756, "ph": 757, "Ġ|": 758, "_f": 759, "Ġvar": 760, "ence": 761, "Id": 762, "ree": 763, "ink": 764, "lect": 765, "ug": 766, "eth": 767, "Ġelse": 768, "----------------": 769, "cont": 770, "Ġso": 771, "atic": 772, "Ġlo": 773, "pro": 774, "ton": 775, "ss": 776, "own": 777, "abel": 778, "oint": 779, "ous": 780, "eld": 781, "ST": 782, "The": 783, "RE": 784, "\":": 785, "olor": 786, "tp": 787, "eg": 788, "key": 789, "ude": 790, "ĠSt": 791, "ound": 792, "Ġar": 793, "\");Ċ": 794, "ener": 795, "ser": 796, "bject": 797, "essage": 798, "fer": 799, "Ġmore": 800, "ations": 801, "ents": 802, "Ġhis": 803, "Ġthey": 804, ".S": 805, "ĠY": 806, "use": 807, "ne": 808, "ish": 809, "old": 810, "_d": 811, "io": 812, "ield": 813, "Ġper": 814, "Cont": 815, "ings": 816, "####": 817, "Ġdata": 818, "Ġsa": 819, "ef": 820, "fo": 821, "Ġone": 822, "eng": 823, "Ġdis": 824, "AT": 825, "Ġname": 826, "Ġtrue": 827, "val": 828, "led": 829, ".f": 830, "Ġne": 831, "Ġend": 832, ".T": 833, "cre": 834, "ark": 835, "log": 836, "Ex": 837, "error": 838, "_id": 839, "urre": 840, "ange": 841, "Ġnull": 842, "rray": 843, "Ġmy": 844, "pan": 845, "ict": 846, "ator": 847, "View": 848, "List": 849, "ĉreturn": 850, "âĢĿ": 851, "Ġpre": 852, "Ġx": 853, "clude": 854, "arg": 855, "ov": 856, ".h": 857, "Ġ>": 858, "Ġtheir": 859, "')": 860, "irst": 861, "ick": 862, "gh": 863, "LE": 864, "OR": 865, "Ġprivate": 866, "tem": 867, "čĊčĊ": 868, "user": 869, "Ġ)": 870, "com": 871, ".A": 872, "\";Ċ": 873, "Ġid": 874, "read": 875, "Ġwho": 876, "_b": 877, "\">Ċ": 878, "Ġtime": 879, "Ġman": 880, "ry": 881, "========": 882, "roup": 883, "rop": 884, "public": 885, "vel": 886, "umber": 887, "ble": 888, "Ġwhich": 889, "****************": 890, "Ġany": 891, "Ġfalse": 892, "we": 893, "Ġvalue": 894, "Ġli": 895, "\")": 896, "nder": 897, "gr": 898, "Ġno": 899, "param": 900, "fig": 901, ".com": 902, "Ġapp": 903, "_l": 904, "ions": 905, ".D": 906, "ĠCh": 907, "Ġabout": 908, "Ġadd": 909, "Ġsu": 910, "Ġstring": 911, "ID": 912, "Ġover": 913, "string": 914, ".l": 915, "ource": 916, "_C": 917, "]Ċ": 918, "Ġqu": 919, "ĠString": 920, "ca": 921, "SE": 922, "Ġro": 923, "sh": 924, "ual": 925, "Type": 926, "son": 927, "new": 928, "ern": 929, "Ġag": 930, "AR": 931, "];Ċ": 932, "].": 933, "Ġ?": 934, "ical": 935, "Ġdes": 936, "uth": 937, "ix": 938, "ays": 939, "Ġtype": 940, "'t": 941, "ault": 942, "Ġinter": 943, "var": 944, ".b": 945, "Ġpart": 946, ".d": 947, "urrent": 948, "IT": 949, "EN": 950, "enc": 951, "(f": 952, "ra": 953, "value": 954, "cho": 955, "utton": 956, "ose": 957, "Ġ!=": 958, "ater": 959, "Ã©": 960, "reate": 961, "oll": 962, "pos": 963, "yle": 964, "ng": 965, "AL": 966, "using": 967, "ames": 968, "Ġ{čĊ": 969, "ates": 970, "ely": 971, "Ġwork": 972, "Ġem": 973, "inal": 974, "Ġsp": 975, "Ġwhen": 976, ".set": 977, "ĠĠĠĠĠĠ": 978, "):Ċ": 979, "to": 980, "quire": 981, "indow": 982, "lement": 983, "pect": 984, "ash": 985, "[i": 986, "Ġuse": 987, ".F": 988, "pec": 989, "Ġad": 990, "ove": 991, "ception": 992, "ength": 993, "include": 994, "ader": 995, "atus": 996, "Th": 997, "itle": 998, "rit": 999, "void": 1000, "().": 1001, "(Ċ": 1002, "Ġoff": 1003, "Ġother": 1004, "Ġ&&": 1005, "';Ċ": 1006, "ms": 1007, "Ġbeen": 1008, "Ġte": 1009, "ml": 1010, "co": 1011, "nc": 1012, "ervice": 1013, "Ġ%": 1014, "**Ċ": 1015, "ann": 1016, "ade": 1017, "ĊĊĊĊ": 1018, "lock": 1019, "const": 1020, "ponse": 1021, "Ġsup": 1022, "++": 1023, "date": 1024, "Ġacc": 1025, "Ġhad": 1026, "Ġbu": 1027, "ĠRe": 1028, "Ġwere": 1029, "Ġfile": 1030, "Ġwould": 1031, "ĠâĢľ": 1032, "ven": 1033, "iss": 1034, "Ġour": 1035, "class": 1036, "raw": 1037, "Ġyear": 1038, "Data": 1039, "Ġval": 1040, "Ġsome": 1041, "fter": 1042, "ys": 1043, "Ġ///": 1044, "round": 1045, "view": 1046, "Ġpe": 1047, "Ġthere": 1048, "Ġsaid": 1049, "du": 1050, "of": 1051, "line": 1052, "/*": 1053, "duct": 1054, "Ġher": 1055, "ĠĠĠĠĠĠĠĠĠĠĠĠĠ": 1056, "Res": 1057, "Ġco": 1058, "Ġcomm": 1059, "ise": 1060, "min": 1061, "ĠĠĠĠĊ": 1062, "#include": 1063, "ethod": 1064, ".P": 1065, "ute": 1066, "Ġass": 1067, "Int": 1068, "ask": 1069, "loc": 1070, "Ġlike": 1071, "ody": 1072, "Ġlet": 1073, "load": 1074, "Ġam": 1075, "rol": 1076, "Ġgr": 1077, "yp": 1078, "Ġalso": 1079, "ĠIt": 1080, "url": 1081, "ific": 1082, "ors": 1083, "_P": 1084, "_n": 1085, "igh": 1086, "Ġthan": 1087, "Com": 1088, "AN": 1089, "UL": 1090, "ating": 1091, "ĠThis": 1092, "ref": 1093, "_S": 1094, "Ġstatic": 1095, "roll": 1096, "Ġjust": 1097, "Ġresult": 1098, "ian": 1099, "idth": 1100, "Ġthem": 1101, "));Ċ": 1102, "der": 1103, "reak": 1104, "Con": 1105, "://": 1106, "ule": 1107, "...": 1108, "arch": 1109, "ement": 1110, "Ġ<<": 1111, "ush": 1112, "ense": 1113, "arr": 1114, "Ġinto": 1115, "cess": 1116, "amp": 1117, "ied": 1118, "ument": 1119, "Ġ\\": 1120, "],": 1121, "wo": 1122, "als": 1123, "Ġwhat": 1124, "anc": 1125, "Value": 1126, "='": 1127, "olum": 1128, "Ġpos": 1129, "ages": 1130, "ayer": 1131, "Ġsc": 1132, "ues": 1133, "\")Ċ": 1134, "_T": 1135, "Ġlist": 1136, "(s": 1137, "Ġcase": 1138, "Ch": 1139, "ĉĉĉĉĉ": 1140, "////////": 1141, "ponent": 1142, "Ġz": 1143, "Ġkn": 1144, "let": 1145, "DE": 1146, "red": 1147, "Ġfe": 1148, "Ġ},Ċ": 1149, "Ġ,": 1150, "(t": 1151, "Ġfirst": 1152, "');Ċ": 1153, "word": 1154, "Ġimport": 1155, "Ġact": 1156, "Ġchar": 1157, "CT": 1158, "ĠTr": 1159, "ople": 1160, "={": 1161, "ĉf": 1162, "ient": 1163, "cent": 1164, ".j": 1165, "lection": 1166, "))Ċ": 1167, "Ġonly": 1168, "Ġprint": 1169, "mer": 1170, ".W": 1171, "ock": 1172, "Ġ--": 1173, "Text": 1174, "Ġop": 1175, "ank": 1176, "Ġits": 1177, "Ġback": 1178, "[\"": 1179, "Ġneed": 1180, "Ġcl": 1181, "Ġsub": 1182, "Ġla": 1183, "((": 1184, ".\"": 1185, "Object": 1186, "Ġstart": 1187, "file": 1188, "(self": 1189, "ner": 1190, "ey": 1191, "Ġuser": 1192, "Ġent": 1193, "ĠCom": 1194, "its": 1195, "ĠCon": 1196, "ouble": 1197, "ower": 1198, "item": 1199, "very": 1200, "ĠWe": 1201, "lick": 1202, "ĠQ": 1203, "php": 1204, "ttp": 1205, "':": 1206, "ics": 1207, "Ġunder": 1208, "Ġ*Ċ": 1209, ".L": 1210, ");": 1211, "ices": 1212, "Ġreg": 1213, ")čĊ": 1214, "ĉpublic": 1215, "SS": 1216, "Ġthen": 1217, "reat": 1218, "ious": 1219, ".G": 1220, "ek": 1221, "irect": 1222, "heck": 1223, "cript": 1224, "ning": 1225, "ĠUn": 1226, "Ġmay": 1227, "ĠWh": 1228, "Bo": 1229, "Item": 1230, "struct": 1231, ".st": 1232, "ream": 1233, "ible": 1234, "loat": 1235, "Ġorg": 1236, "und": 1237, "sum": 1238, "_in": 1239, "../": 1240, "_M": 1241, "Ġhow": 1242, "rite": 1243, "'Ċ": 1244, "To": 1245, "ww": 1246, "Ġpeople": 1247, "index": 1248, ".n": 1249, "http": 1250, "(m": 1251, "ector": 1252, "Ġind": 1253, "Ġjav": 1254, "],Ċ": 1255, "ĠHe": 1256, "_st": 1257, "ful": 1258, "ole": 1259, "){Ċ": 1260, "Ġshould": 1261, "opy": 1262, "elp": 1263, "ier": 1264, "_name": 1265, "erson": 1266, "ION": 1267, "ote": 1268, "Ġtest": 1269, "Ġbet": 1270, "rror": 1271, "ular": 1272, "ãĢ": 1273, "ĠÐ": 1274, "bs": 1275, "ting": 1276, "Ġmake": 1277, "Tr": 1278, "Ġafter": 1279, "arget": 1280, "RO": 1281, "olumn": 1282, "rc": 1283, "_re": 1284, "define": 1285, "Ġright": 1286, "right": 1287, "day": 1288, "Ġlong": 1289, "[]": 1290, "(p": 1291, "td": 1292, "cond": 1293, "ĠPro": 1294, "Ġrem": 1295, "ptions": 1296, "vid": 1297, ".g": 1298, "Ġext": 1299, "Ġ__": 1300, "')Ċ": 1301, "pace": 1302, "mp": 1303, "Ġmin": 1304, "stance": 1305, "air": 1306, "action": 1307, "wh": 1308, "type": 1309, "util": 1310, "ait": 1311, "<?": 1312, "IC": 1313, "text": 1314, "Ġph": 1315, "Ġfl": 1316, ".M": 1317, "ccess": 1318, "br": 1319, "fore": 1320, "ersion": 1321, "),Ċ": 1322, ".re": 1323, "ateg": 1324, "Ġloc": 1325, "ins": 1326, "-s": 1327, "trib": 1328, "ĠInt": 1329, "Ġarray": 1330, ",\"": 1331, "Pro": 1332, "(c": 1333, "ession": 1334, ">ĊĊ": 1335, "Ġshe": 1336, "\"]": 1337, "aph": 1338, "Ġexp": 1339, "erty": 1340, "ĠSe": 1341, "Ġpar": 1342, "unc": 1343, "ET": 1344, "Ġread": 1345, "print": 1346, "Ġrel": 1347, "Ġform": 1348, "Ġdr": 1349, "Exception": 1350, "input": 1351, "Ġtrans": 1352, "########": 1353, "order": 1354, "By": 1355, "Ġaw": 1356, "ities": 1357, "uff": 1358, "play": 1359, ".add": 1360, "ĠâĢĵ": 1361, "Ġwant": 1362, "Ġcomp": 1363, "ments": 1364, "Ġ||": 1365, "az": 1366, "be": 1367, "Ġnumber": 1368, "Ġrequire": 1369, "ĠEx": 1370, "Ġcol": 1371, "Ġkey": 1372, "ember": 1373, "Ġtwo": 1374, "Ġsize": 1375, "Ġwhere": 1376, "UT": 1377, "result": 1378, "ough": 1379, "orld": 1380, "ood": 1381, "uch": 1382, "ative": 1383, "ger": 1384, "arent": 1385, "Ġ/*": 1386, "Ġarg": 1387, "Ġwhile": 1388, "(this": 1389, "Ġrec": 1390, "Ġdif": 1391, "State": 1392, "Ġspec": 1393, "ride": 1394, "_F": 1395, "Ġlook": 1396, "AM": 1397, "ility": 1398, "eter": 1399, "âĢĻt": 1400, "ĊĊĊ": 1401, "ayout": 1402, "ager": 1403, "Ġcould": 1404, "Ġbr": 1405, "ends": 1406, "ures": 1407, "Ġknow": 1408, "ets": 1409, "ĠIf": 1410, "ĠSh": 1411, ".w": 1412, "back": 1413, "Ġser": 1414, "Ġ+=": 1415, "Ġfr": 1416, "());Ċ": 1417, "Ġhand": 1418, "Ind": 1419, "ULL": 1420, "Im": 1421, "();ĊĊ": 1422, "Ġmost": 1423, "Ġtry": 1424, "Ġnow": 1425, "rough": 1426, ">čĊ": 1427, "ackage": 1428, "Ġhim": 1429, "._": 1430, "ify": 1431, "Ġbreak": 1432, "Ġ);Ċ": 1433, "ren": 1434, "#define": 1435, "itt": 1436, "Ġap": 1437, "ĉc": 1438, "(n": 1439, "ĠYou": 1440, ":ĊĊ": 1441, "-m": 1442, "Ġevery": 1443, "ustom": 1444, "lient": 1445, "ocument": 1446, "cription": 1447, "Error": 1448, "-b": 1449, "Ð¾": 1450, "][": 1451, "trans": 1452, "Ġpoint": 1453, "Ġstd": 1454, "Ġfil": 1455, "Time": 1456, "Ġmod": 1457, "Ġ->": 1458, "Ġerror": 1459, "ah": 1460, "Ġtext": 1461, "roller": 1462, "lose": 1463, "ql": 1464, "Ġpol": 1465, "></": 1466, "Ġshow": 1467, "User": 1468, "ased": 1469, "Ġ{ĊĊ": 1470, "Ġfind": 1471, "Ð°": 1472, "ED": 1473, "span": 1474, "enu": 1475, "Ġcurrent": 1476, "Ġused": 1477, "cept": 1478, "clud": 1479, "Ġplay": 1480, "Ġlog": 1481, "ution": 1482, "fl": 1483, "Ġsee": 1484, "indows": 1485, "Ġhelp": 1486, "Ġthese": 1487, "Ġpass": 1488, "Ġdown": 1489, "Ġeven": 1490, "ason": 1491, "uild": 1492, "from": 1493, "(d": 1494, "Ġbl": 1495, "label": 1496, "else": 1497, "Ðµ": 1498, "Ġ(!": 1499, "ized": 1500, "(),": 1501, "Ġob": 1502, "Ġitem": 1503, "ump": 1504, "UR": 1505, "orn": 1506, "Ġdon": 1507, "Se": 1508, "man": 1509, "ample": 1510, "tn": 1511, "================": 1512, "He": 1513, "gram": 1514, "Ġdid": 1515, "wn": 1516, "_h": 1517, "iver": 1518, "Ġsm": 1519, "Ġthrough": 1520, "ĠAn": 1521, "che": 1522, "Ġinv": 1523, "ouse": 1524, "Ġes": 1525, "ĠNew": 1526, "export": 1527, "mary": 1528, "uto": 1529, "ler": 1530, "Ġlast": 1531, "Ġevent": 1532, "try": 1533, "ï¼": 1534, "ily": 1535, "igned": 1536, "ines": 1537, "ollow": 1538, "icense": 1539, "sole": 1540, "lear": 1541, "(int": 1542, "Ġagain": 1543, "Ġhigh": 1544, "html": 1545, "Index": 1546, "uthor": 1547, "Ġ/**Ċ": 1548, "Ġline": 1549, "Event": 1550, "_D": 1551, "Ġdoes": 1552, "itial": 1553, "Ġcr": 1554, "ars": 1555, "Ġtem": 1556, "cause": 1557, "face": 1558, "Ġ`": 1559, "_A": 1560, "Button": 1561, "ature": 1562, "ected": 1563, "ES": 1564, "ister": 1565, "ĉĊ": 1566, "Ġbefore": 1567, "ale": 1568, "other": 1569, "Ġbecause": 1570, "roid": 1571, "Ġed": 1572, "ik": 1573, "reg": 1574, "ĠDe": 1575, "Ġdist": 1576, "},Ċ": 1577, "Ġstate": 1578, "Ġcons": 1579, "rint": 1580, "att": 1581, "Ġhere": 1582, "ined": 1583, "Ġfinal": 1584, "Ġ\"\"": 1585, "Key": 1586, "LO": 1587, "Ġdel": 1588, "pty": 1589, "thing": 1590, "ĠAnd": 1591, "Ġrun": 1592, "ĠX": 1593, "ym": 1594, ".app": 1595, "Ġvery": 1596, "ces": 1597, "_N": 1598, "ared": 1599, "ward": 1600, "list": 1601, "ited": 1602, "olog": 1603, "itch": 1604, "Box": 1605, "ife": 1606, "Ġac": 1607, "Ġmodel": 1608, "Ġmon": 1609, "Ġway": 1610, "lete": 1611, "Ġcall": 1612, "Ġatt": 1613, "Ġcal": 1614, "vert": 1615, "Ġdec": 1616, "lease": 1617, "oun": 1618, "Ġ});Ċ": 1619, "fr": 1620, "formation": 1621, "etail": 1622, "Ġnum": 1623, "aj": 1624, "query": 1625, "Ġwell": 1626, "Ġobject": 1627, "ĠAs": 1628, "Ġyears": 1629, "Color": 1630, "IS": 1631, "Ġdefault": 1632, "Wh": 1633, "Ġins": 1634, "aint": 1635, "Ġjava": 1636, "Ġsim": 1637, "ĠAr": 1638, "mon": 1639, "til": 1640, "();čĊ": 1641, "):": 1642, "Set": 1643, "atter": 1644, "Ġview": 1645, "Ġpres": 1646, "array": 1647, "We": 1648, "At": 1649, "Ġbel": 1650, "Ġmany": 1651, "Man": 1652, "ender": 1653, "Ġbeing": 1654, "Ġgood": 1655, "ĉĉĉĉĉĉ": 1656, "ational": 1657, "ware": 1658, ".log": 1659, "{čĊ": 1660, "Ġusing": 1661, "_B": 1662, "Ġ:=": 1663, "_w": 1664, "ists": 1665, "lish": 1666, "Ġstud": 1667, "ĠAl": 1668, "Ġgu": 1669, "config": 1670, "uring": 1671, "time": 1672, "oken": 1673, "amespace": 1674, "Ġrequest": 1675, "Ġchild": 1676, "ĠÃ": 1677, "lob": 1678, "Ġparam": 1679, "Ġ}čĊ": 1680, "Ġecho": 1681, "function": 1682, "ps": 1683, "Element": 1684, "alk": 1685, "lication": 1686, "by": 1687, "Size": 1688, "rawing": 1689, "Ġperson": 1690, "\\n": 1691, "object": 1692, "ince": 1693, "En": 1694, "File": 1695, "uf": 1696, "ffect": 1697, "AC": 1698, "Ġstyle": 1699, "summary": 1700, "Ġque": 1701, "_r": 1702, "Ġ($": 1703, "Model": 1704, "ident": 1705, "Ġmethod": 1706, "IL": 1707, "ott": 1708, "less": 1709, "ING": 1710, "Ġ()": 1711, "Ġexpect": 1712, "ync": 1713, "package": 1714, "urs": 1715, "Ġprot": 1716, "./": 1717, "pre": 1718, "Ġ)Ċ": 1719, "ma": 1720, "Ġsur": 1721, "Ġfound": 1722, "Info": 1723, "par": 1724, "imes": 1725, ".e": 1726, "ains": 1727, "Ġpost": 1728, "-d": 1729, "olean": 1730, "Ġsl": 1731, "PE": 1732, "Ġsuch": 1733, "select": 1734, "ainer": 1735, "Ġthink": 1736, "Ġdiffer": 1737, ".r": 1738, "/**Ċ": 1739, "FF": 1740, "ool": 1741, "plate": 1742, "qual": 1743, "ĠFor": 1744, "Ġmuch": 1745, "uc": 1746, "(new": 1747, "odule": 1748, "Ġsom": 1749, "Ġhttp": 1750, "ĠList": 1751, "Ġcount": 1752, "Ġinst": 1753, "char": 1754, "mit": 1755, ".id": 1756, "aking": 1757, "Ġgener": 1758, "px": 1759, "vice": 1760, "_data": 1761, "ĠNULL": 1762, "}čĊ": 1763, "idd": 1764, "ãĢĤ": 1765, "Ġmed": 1766, "org": 1767, "ider": 1768, "ache": 1769, "work": 1770, "Ġcheck": 1771, "ween": 1772, "Ġ((": 1773, "the": 1774, "ants": 1775, "><": 1776, ".B": 1777, "-c": 1778, "Ġopen": 1779, "Ġest": 1780, "ĠĠĠĠĠĠĠĠĊ": 1781, "Ġnext": 1782, "IM": 1783, "ÑĤ": 1784, "OT": 1785, "Ã³": 1786, "Ġfollow": 1787, "content": 1788, "ĠĠĠĠĠĠĠĠĠĠĠĠ": 1789, "Ġinclud": 1790, "HE": 1791, "ĠRes": 1792, "Ġhref": 1793, "Ð¸": 1794, "Ġcar": 1795, "ypes": 1796, "image": 1797, "Un": 1798, "Ġbool": 1799, "AD": 1800, "Ġgame": 1801, ".Form": 1802, "rows": 1803, "*/": 1804, "velop": 1805, ".Drawing": 1806, "Ġpath": 1807, "ision": 1808, "Ġeach": 1809, "ĠPl": 1810, "_type": 1811, "Path": 1812, "nection": 1813, "Ġav": 1814, "').": 1815, "Ġsupport": 1816, "ENT": 1817, "rem": 1818, "\").": 1819, "Ġown": 1820, "Ġcor": 1821, "count": 1822, "miss": 1823, "ually": 1824, "Ġmem": 1825, "std": 1826, "ience": 1827, "search": 1828, "\"ĊĊ": 1829, "Form": 1830, "Ġsex": 1831, "ename": 1832, "Ġsign": 1833, "Ġet": 1834, "ĠĠĠĠĠĠĠĠĠĠ": 1835, "','": 1836, "ĠApp": 1837, "Ġthose": 1838, "off": 1839, "Ġerr": 1840, "Ġsystem": 1841, "Ġbest": 1842, "code": 1843, "Ġsame": 1844, "Ġdi": 1845, "uss": 1846, "Ġcreate": 1847, "ather": 1848, "Array": 1849, ".in": 1850, "fe": 1851, "Service": 1852, "UN": 1853, "ats": 1854, "ĠZ": 1855, "alth": 1856, "Ġmade": 1857, "true": 1858, "AB": 1859, "Ġmark": 1860, "rid": 1861, "ified": 1862, ",čĊ": 1863, "yn": 1864, "press": 1865, "Ġgroup": 1866, "Ġfin": 1867, "ĠLicense": 1868, "Field": 1869, "eger": 1870, "Ġworld": 1871, "iness": 1872, "ty": 1873, "Ġprocess": 1874, "(b": 1875, "Ġcre": 1876, "arn": 1877, "ives": 1878, "Ġmain": 1879, "ideo": 1880, "_g": 1881, "AG": 1882, "valid": 1883, "img": 1884, "PI": 1885, "Ġcolor": 1886, "Ġreport": 1887, "Ġtake": 1888, "rib": 1889, "OM": 1890, "Ġday": 1891, "Request": 1892, "Ġsk": 1893, "bers": 1894, "ĉs": 1895, ".Add": 1896, "oot": 1897, "Image": 1898, "Ġcomple": 1899, "ollection": 1900, "Ġtop": 1901, "Ġfree": 1902, "AS": 1903, "De": 1904, "ĠOn": 1905, "IG": 1906, "eta": 1907, "Date": 1908, "Ġaction": 1909, "Over": 1910, "itor": 1911, "not": 1912, "Ġindex": 1913, "her": 1914, "icon": 1915, "On": 1916, ";čĊčĊ": 1917, "ivity": 1918, "mand": 1919, ".Windows": 1920, "OL": 1921, "Ġreal": 1922, "Ġmax": 1923, "land": 1924, "....": 1925, "raph": 1926, "Ġbuild": 1927, "leg": 1928, "assword": 1929, "?ĊĊ": 1930, "âĢ¦": 1931, "ook": 1932, "uck": 1933, "Ġmessage": 1934, "test": 1935, "ivers": 1936, "Ġinput": 1937, "Ġart": 1938, "Ġbetween": 1939, "Get": 1940, "enter": 1941, "ground": 1942, "ene": 1943, "Ã¡": 1944, ".length": 1945, "Node": 1946, "(i": 1947, "Class": 1948, "for": 1949, "ĠâĢĶ": 1950, "ten": 1951, "oin": 1952, "Ġke": 1953, "ui": 1954, "ĠIN": 1955, "Ġtable": 1956, "sub": 1957, "ĠLe": 1958, "Ġhead": 1959, "Ġmust": 1960, "////////////////": 1961, ".util": 1962, "Context": 1963, "Ġorder": 1964, "Ġmov": 1965, "over": 1966, "Ġcontin": 1967, "Ġsay": 1968, "static": 1969, ".Text": 1970, "ĠclassName": 1971, "pany": 1972, "Ġter": 1973, "head": 1974, "rg": 1975, "Ġproduct": 1976, "This": 1977, ".âĢĿ": 1978, "ĠBut": 1979, "loy": 1980, "Ġdouble": 1981, "sg": 1982, "Ġplace": 1983, ".x": 1984, "message": 1985, "Ġinformation": 1986, "private": 1987, "Ġoper": 1988, "ced": 1989, "db": 1990, "\"></": 1991, "Param": 1992, "icle": 1993, "Ġweek": 1994, "Ġprop": 1995, "table": 1996, "idget": 1997, "place": 1998, "Prop": 1999, "ĠAll": 2000, "els": 2001, "box": 2002, ".ĊĊĊĊ": 2003, ".R": 2004, "ĠTo": 2005, "iter": 2006, "Sh": 2007, "uration": 2008, "older": 2009, "_list": 2010, "come": 2011, "Ġsw": 2012, "ization": 2013, "ĉfor": 2014, "bl": 2015, "Ġprogram": 2016, "(e": 2017, "ape": 2018, "check": 2019, ".Forms": 2020, "Ġund": 2021, "ategory": 2022, "ags": 2023, "Ġresponse": 2024, "US": 2025, "request": 2026, "Ġstruct": 2027, "escription": 2028, "Ġcode": 2029, "_H": 2030, "uffer": 2031, "Ġwithout": 2032, "lobal": 2033, "Manager": 2034, "ilter": 2035, "PO": 2036, "ĉthis": 2037, "option": 2038, "Ġsol": 2039, "Ġ===": 2040, "akes": 2041, "Controller": 2042, "Message": 2043, "Ġref": 2044, "ever": 2045, "ĠSo": 2046, "aining": 2047, ".append": 2048, "Ġstill": 2049, "Ġprovid": 2050, "Ġassert": 2051, "med": 2052, "Ġcap": 2053, "usiness": 2054, "Ġrep": 2055, "tings": 2056, "ved": 2057, ".N": 2058, "api": 2059, "OD": 2060, "Ġfield": 2061, "iven": 2062, "oto": 2063, "âĢľ": 2064, "col": 2065, "(x": 2066, "ght": 2067, "Result": 2068, "Code": 2069, ".is": 2070, "link": 2071, "Ġcour": 2072, "An": 2073, "Ġteam": 2074, "ĉint": 2075, "ift": 2076, "Ġsecond": 2077, "Ġgoing": 2078, "Ġrange": 2079, "_E": 2080, "ness": 2081, "Ġfam": 2082, "Ġnil": 2083, "ĠCont": 2084, "ailable": 2085, "utes": 2086, "atab": 2087, "Ġfact": 2088, "Ġvis": 2089, "(&": 2090, "ĠAN": 2091, "Al": 2092, "title": 2093, "Ġandroid": 2094, "CE": 2095, "\\\"": 2096, "irt": 2097, "Ġwrit": 2098, "Ð½": 2099, "ĉm": 2100, "ftware": 2101, "ond": 2102, "Ġret": 2103, "osition": 2104, "Ġhome": 2105, "Ġleft": 2106, "args": 2107, "meric": 2108, "Ġdirect": 2109, "oci": 2110, "Pl": 2111, "As": 2112, "ret": 2113, "ado": 2114, "Of": 2115, "chn": 2116, "ĠGet": 2117, "ee": 2118, "ross": 2119, "();": 2120, "____": 2121, ".ph": 2122, "It": 2123, "oute": 2124, "Ġexper": 2125, "chool": 2126, "www": 2127, "},": 2128, "Ġallow": 2129, "ĠÂ": 2130, "())": 2131, "size": 2132, "ism": 2133, "ai": 2134, "tract": 2135, "ane": 2136, "...ĊĊ": 2137, "context": 2138, "Ġbeg": 2139, "CH": 2140, "Ġpage": 2141, "hip": 2142, "no": 2143, "core": 2144, "sp": 2145, "Ġdifferent": 2146, "iable": 2147, "ĠMe": 2148, "_IN": 2149, "button": 2150, "ĠIs": 2151, "ervices": 2152, "Ġca": 2153, "Ġaround": 2154, "App": 2155, "ration": 2156, "Ġrece": 2157, "Ġreally": 2158, "Ġimage": 2159, "Ġtarget": 2160, "Ġdep": 2161, "opyright": 2162, "tra": 2163, "ingle": 2164, "ital": 2165, "Layout": 2166, "Ġboth": 2167, "Override": 2168, "arm": 2169, "=>": 2170, "aterial": 2171, "iled": 2172, "Ġput": 2173, "Qu": 2174, "ÑĢ": 2175, "ung": 2176, "map": 2177, "ĉĉĉĉĉĉĉĉ": 2178, "Ġlevel": 2179, "Component": 2180, "book": 2181, "creen": 2182, "_RE": 2183, "Ġconfig": 2184, "ãģ": 2185, "Or": 2186, ".data": 2187, "Ġdocument": 2188, "\",\"": 2189, "tribute": 2190, "ux": 2191, "Log": 2192, "ference": 2193, "post": 2194, "_e": 2195, "Ġlocal": 2196, "andom": 2197, "assert": 2198, "Val": 2199, "lected": 2200, "ina": 2201, "atabase": 2202, "Add": 2203, "Ġcontent": 2204, ".print": 2205, "signed": 2206, "ric": 2207, ".\"ĊĊ": 2208, "Ġfa": 2209, "!ĊĊ": 2210, "-f": 2211, "ived": 2212, "Ġquest": 2213, ".ex": 2214, "Ġfloat": 2215, "Ġdevelop": 2216, "Ð¾Ð": 2217, "Map": 2218, "ading": 2219, "Ġposs": 2220, "UE": 2221, "namespace": 2222, "_O": 2223, "ĉb": 2224, ".Get": 2225, ">(": 2226, "json": 2227, "etails": 2228, "Ġtoo": 2229, "Ġextends": 2230, "ĠNone": 2231, "Ġfore": 2232, "(String": 2233, "format": 2234, "Ġgreat": 2235, "inter": 2236, "cale": 2237, "Ñģ": 2238, "ron": 2239, "iving": 2240, "Ent": 2241, "ency": 2242, "xt": 2243, "oy": 2244, "Ġmonth": 2245, "Ġhapp": 2246, "Ġsuper": 2247, "bar": 2248, "default": 2249, "_de": 2250, "ords": 2251, "ln": 2252, "({Ċ": 2253, "ĠInd": 2254, "ases": 2255, "Ġtitle": 2256, "Ġcontext": 2257, "oh": 2258, "-p": 2259, "Em": 2260, "Ġmet": 2261, "Test": 2262, "Ġlife": 2263, "_v": 2264, "ĠUS": 2265, "UI": 2266, "ocation": 2267, "md": 2268, "Ġ[Ċ": 2269, "Ġ]": 2270, "sw": 2271, "Ġincre": 2272, "script": 2273, "ential": 2274, "ways": 2275, ".de": 2276, "Ġsrc": 2277, "Ġcatch": 2278, "ĠAmeric": 2279, "//Ċ": 2280, "ĠĠĠĠĠĠĠĠĠĠĠĠĠĠ": 2281, "Ġpay": 2282, "plit": 2283, "âĢĶ": 2284, "Ġcoun": 2285, "obj": 2286, ".php": 2287, "Ġchange": 2288, "ething": 2289, "'re": 2290, "aster": 2291, "los": 2292, "lation": 2293, "ĠĠĊ": 2294, "Le": 2295, "Ã¤": 2296, "({": 2297, "ready": 2298, "ĠNo": 2299, "Ġposition": 2300, "Ġold": 2301, "Ġbook": 2302, "abled": 2303, "bug": 2304, "Hand": 2305, "};ĊĊ": 2306, "isplay": 2307, "aving": 2308, "Ġgover": 2309, "Ġversion": 2310, "System": 2311, "nect": 2312, "response": 2313, "Style": 2314, "Up": 2315, "angu": 2316, "Ġthree": 2317, "init": 2318, "ero": 2319, "Ġlaw": 2320, "endif": 2321, "Ġbase": 2322, "email": 2323, "(l": 2324, "_V": 2325, "Ġconf": 2326, "ATE": 2327, "Ġduring": 2328, "tes": 2329, "Ġconsole": 2330, "ĠPr": 2331, "Ġspe": 2332, "ves": 2333, "path": 2334, "ialog": 2335, "dition": 2336, "_to": 2337, "ards": 2338, "Ġagainst": 2339, "etwork": 2340, "ĠPh": 2341, "_L": 2342, "cur": 2343, "imit": 2344, "With": 2345, "Ġpower": 2346, "ium": 2347, "';ĊĊ": 2348, "Ġwom": 2349, "left": 2350, "ources": 2351, "atri": 2352, "ĠIm": 2353, "ĠMan": 2354, "orth": 2355, "${": 2356, "quals": 2357, "ese": 2358, "_size": 2359, "Ġiss": 2360, "otal": 2361, "-g": 2362, "ique": 2363, "rame": 2364, "Ġwidth": 2365, "erg": 2366, ")(": 2367, "ittle": 2368, "TR": 2369, "ĠThey": 2370, "ences": 2371, "rl": 2372, "ons": 2373, "Ġlabel": 2374, ".y": 2375, "-t": 2376, "update": 2377, "anel": 2378, "sc": 2379, ".to": 2380, "Ġproject": 2381, "Ã¼": 2382, "Ġelement": 2383, "Ġsuccess": 2384, "ĉĉĊ": 2385, ".sh": 2386, "ram": 2387, "ched": 2388, "())Ċ": 2389, "Ġ(Ċ": 2390, "Ġdate": 2391, "Ġtot": 2392, "_ST": 2393, "All": 2394, "ification": 2395, "ĉvar": 2396, "Ġtri": 2397, "chem": 2398, "my": 2399, "Ġbig": 2400, "ĠAd": 2401, "ĠAt": 2402, "ots": 2403, "num": 2404, "Act": 2405, "Ġmap": 2406, "era": 2407, "cope": 2408, ".$": 2409, ",âĢĿ": 2410, "Ġpop": 2411, "Ġfew": 2412, "Ġlen": 2413, "uid": 2414, "eters": 2415, "ules": 2416, "ÃŃ": 2417, "source": 2418, "https": 2419, "Ġdem": 2420, "Ġear": 2421, "################": 2422, "Ġmatch": 2423, "ories": 2424, "aces": 2425, "ĠCl": 2426, "Ġnode": 2427, "irc": 2428, "local": 2429, "unity": 2430, "};Ċ": 2431, "Ġanother": 2432, "<<": 2433, "ogle": 2434, "Ġsit": 2435, "ework": 2436, "TE": 2437, ".I": 2438, "NS": 2439, "ology": 2440, "ought": 2441, ".Cont": 2442, ">>": 2443, "Ġcare": 2444, "state": 2445, "ĉprivate": 2446, "Ġeffect": 2447, "++)": 2448, "_file": 2449, "ending": 2450, "Line": 2451, "For": 2452, "ior": 2453, "ĠSc": 2454, "Ġfun": 2455, ".Size": 2456, "ĉelse": 2457, "])": 2458, "start": 2459, "vious": 2460, "Ġ},": 2461, "ours": 2462, "Ġleg": 2463, "Ġservice": 2464, "Ġsince": 2465, "iron": 2466, "Label": 2467, "Ġnon": 2468, "Ġlos": 2469, "iction": 2470, "Ġfull": 2471, "acter": 2472, "board": 2473, "gress": 2474, "Ġturn": 2475, "ither": 2476, ".size": 2477, "Ġbody": 2478, "resh": 2479, "eturn": 2480, "(_": 2481, "yles": 2482, "ormal": 2483, "pi": 2484, "Ġsomething": 2485, "!--": 2486, "uint": 2487, "Ġprodu": 2488, "Ġstand": 2489, "Ġproble": 2490, "Ġavailable": 2491, "mt": 2492, "ĠBl": 2493, "Ġ...": 2494, "Ġblock": 2495, "Input": 2496, "Ġkeep": 2497, "Count": 2498, "open": 2499, "Ġ['": 2500, "Ġthrow": 2501, "uilder": 2502, "Action": 2503, "Ġthings": 2504, "True": 2505, "Ġurl": 2506, "ĠBo": 2507, "printf": 2508, "Ġred": 2509, "js": 2510, ".create": 2511, "ĠOr": 2512, "Status": 2513, "Instance": 2514, "Ġcontrol": 2515, "Ġcome": 2516, "Ġcustom": 2517, "location": 2518, "model": 2519, "ĠčĊ": 2520, "Ġsource": 2521, "Ġeas": 2522, ".out": 2523, "]ĊĊ": 2524, "oney": 2525, "Ġawait": 2526, "Ġpartic": 2527, "AP": 2528, "ublish": 2529, "odes": 2530, "_pro": 2531, "ply": 2532, "riter": 2533, "Ġprov": 2534, "Ġmill": 2535, "HT": 2536, "])Ċ": 2537, "Ġchang": 2538, "Ġask": 2539, "Ġoutput": 2540, "Ġemail": 2541, ".push": 2542, "Ġ}čĊčĊ": 2543, "ination": 2544, "atrix": 2545, "Table": 2546, "uccess": 2547, "]);Ċ": 2548, "Ġdisc": 2549, "([": 2550, "Ġbusiness": 2551, "height": 2552, ".html": 2553, "ta": 2554, "field": 2555, "Ġrequired": 2556, "_R": 2557, "Ġgovern": 2558, "}čĊčĊ": 2559, "lex": 2560, ".,": 2561, "ĠSet": 2562, "urch": 2563, "///": 2564, "ts": 2565, "af": 2566, "Ġmight": 2567, "istory": 2568, "Str": 2569, "Ġnever": 2570, "Response": 2571, "arse": 2572, "ada": 2573, "ĠHow": 2574, "Ġ*)": 2575, "Ġ;": 2576, "Ġhard": 2577, "Ad": 2578, "Ġintern": 2579, "used": 2580, "(data": 2581, "mod": 2582, "annel": 2583, "Ġnp": 2584, "ugg": 2585, "Ġ/>Ċ": 2586, "Ġcalled": 2587, "body": 2588, "Ġcho": 2589, "(r": 2590, "_set": 2591, "ird": 2592, "Ġ>=": 2593, "Ġ};Ċ": 2594, "Ġoptions": 2595, "ĠGener": 2596, "Ġheight": 2597, "Point": 2598, "You": 2599, "ety": 2600, "Click": 2601, "Ġsmall": 2602, "Ġide": 2603, "Ġaccess": 2604, "anguage": 2605, "Ġprotected": 2606, "Ġjob": 2607, "ĠThere": 2608, "Def": 2609, "Ġaddress": 2610, "Ġuint": 2611, "Not": 2612, "oo": 2613, "aps": 2614, "<div": 2615, "ained": 2616, "atur": 2617, "Ġsum": 2618, "-w": 2619, "ĠDate": 2620, "Ġlittle": 2621, "Ġfri": 2622, "YPE": 2623, "Ġport": 2624, "eh": 2625, "pring": 2626, "_path": 2627, "Ġstatus": 2628, "aim": 2629, "bool": 2630, "Ġappe": 2631, "Ġos": 2632, ".name": 2633, "ension": 2634, "_G": 2635, "Ġupdate": 2636, "Config": 2637, "aff": 2638, "ERR": 2639, "Ġ<=": 2640, "ately": 2641, "#if": 2642, "uction": 2643, "ĠTe": 2644, "Ġlink": 2645, "ĠUser": 2646, ".find": 2647, ".org": 2648, "me": 2649, "Ġgiven": 2650, "Out": 2651, "#endif": 2652, "Ġbetter": 2653, "Page": 2654, "Ġfeel": 2655, "enn": 2656, "ML": 2657, "Ġalready": 2658, "Ġincluding": 2659, "oogle": 2660, "ru": 2661, "ically": 2662, "prop": 2663, "lean": 2664, "outer": 2665, "Ġalways": 2666, "ording": 2667, "If": 2668, "orage": 2669, "Ġparent": 2670, "vis": 2671, "ĉĉĉĉĉĉĉ": 2672, "Ġgot": 2673, "stand": 2674, "Ġless": 2675, "/s": 2676, "ĠAss": 2677, "apt": 2678, "ired": 2679, "ĠAdd": 2680, "Ġaccount": 2681, "ploy": 2682, "Ġder": 2683, "resent": 2684, "Ġlot": 2685, "Ġvalid": 2686, "ĉd": 2687, "Ġbit": 2688, "ponents": 2689, "Ġfollowing": 2690, "_ex": 2691, "SON": 2692, "Ġsure": 2693, "ocial": 2694, "Ġprom": 2695, "erties": 2696, "header": 2697, ".pro": 2698, "Ġboolean": 2699, "Ġsearch": 2700, "ken": 2701, "Ġorig": 2702, "Ġer": 2703, "Ed": 2704, "EM": 2705, "aut": 2706, "ling": 2707, "ality": 2708, "ById": 2709, "bed": 2710, "ĉcase": 2711, "ether": 2712, "posit": 2713, "Ġinvest": 2714, "ĠOR": 2715, "Ġsays": 2716, "mission": 2717, "AME": 2718, "Ġtemp": 2719, "oad": 2720, "Ġrest": 2721, "info": 2722, "Ġinterest": 2723, "Arg": 2724, "Ġperform": 2725, "pons": 2726, "ĠView": 2727, "Ġver": 2728, "lib": 2729, "(const": 2730, "Util": 2731, "Listener": 2732, "arge": 2733, "Ġmult": 2734, "Ġdie": 2735, "Ġsite": 2736, "../../": 2737, "EL": 2738, "Ġvalues": 2739, "Ġ})Ċ": 2740, "pen": 2741, "No": 2742, "icro": 2743, "Ġbeh": 2744, "Ġ'./": 2745, "acy": 2746, "rec": 2747, "()->": 2748, "ĉĠĠĠ": 2749, "\"))": 2750, "Content": 2751, "_W": 2752, "plement": 2753, "Ġwon": 2754, "Ġvideo": 2755, "adi": 2756, "point": 2757, "%%": 2758, "Ġgl": 2759, "erved": 2760, "viron": 2761, "IF": 2762, "uted": 2763, "ãĥ": 2764, "'m": 2765, "Ġcert": 2766, "Ġprof": 2767, "Ġcell": 2768, "ari": 2769, "Ġplayer": 2770, "ais": 2771, "Ġcost": 2772, "Ġhum": 2773, "(R": 2774, "Ġoffic": 2775, "ks": 2776, ".text": 2777, "atures": 2778, "Ġtotal": 2779, "Ġ*/ĊĊ": 2780, "ope": 2781, "Ġstat": 2782, "UM": 2783, "Ġload": 2784, "ights": 2785, "Ġclear": 2786, "uro": 2787, "Ġtechn": 2788, "upport": 2789, "IR": 2790, "Ġrow": 2791, "Ġseem": 2792, "Ġq": 2793, "Ġshort": 2794, "ĠNot": 2795, "ipp": 2796, "Group": 2797, "section": 2798, "max": 2799, "irl": 2800, "Ġoverride": 2801, "Ġcompany": 2802, "Ġdone": 2803, "\");čĊ": 2804, "Ġgre": 2805, ".Re": 2806, "Ġbelie": 2807, "rist": 2808, "Ġhealth": 2809, "ANT": 2810, "()ĊĊ": 2811, "ĠBe": 2812, ".value": 2813, "ĠGr": 2814, "ottom": 2815, "Ġargs": 2816, "PT": 2817, "status": 2818, "func": 2819, "uments": 2820, "-h": 2821, "Number": 2822, ":čĊ": 2823, "ĠLog": 2824, "erver": 2825, "Ġ),Ċ": 2826, "ament": 2827, "Ġobj": 2828, "inc": 2829, "Ġchildren": 2830, "icy": 2831, "IZ": 2832, "ands": 2833, "ably": 2834, "Ġdistrib": 2835, "Ġcur": 2836, "erial": 2837, "Ġdays": 2838, "reated": 2839, "rect": 2840, "-l": 2841, "irm": 2842, "idden": 2843, "omb": 2844, "Ġinitial": 2845, ".js": 2846, "Ġâ": 2847, "Query": 2848, "Ġonline": 2849, "imal": 2850, ".con": 2851, "au": 2852, "Url": 2853, "control": 2854, "irection": 2855, "Ġinstance": 2856, "ORT": 2857, "ĠFr": 2858, "where": 2859, "Ġjavax": 2860, "Ġorgan": 2861, "apter": 2862, "Ġreason": 2863, "options": 2864, "ĠMar": 2865, "(a": 2866, "Ġwithin": 2867, ".âĢĿĊĊ": 2868, "ODE": 2869, "_DE": 2870, "admin": 2871, "ended": 2872, "Ġdesign": 2873, "ĠData": 2874, "une": 2875, "ĠFile": 2876, "root": 2877, "Ġcent": 2878, "Ġarr": 2879, "_add": 2880, "len": 2881, "page": 2882, ",'": 2883, "_str": 2884, "Ġbro": 2885, "ability": 2886, "outh": 2887, "/c": 2888, "pose": 2889, "irtual": 2890, "earch": 2891, "_url": 2892, "argin": 2893, "Http": 2894, "Ġschool": 2895, "ava": 2896, "Ġconsider": 2897, ".label": 2898, "ĠArray": 2899, "web": 2900, "opt": 2901, ".println": 2902, "ulation": 2903, "Ġfunc": 2904, "PL": 2905, "Ġ\"\\": 2906, "ĠText": 2907, "actory": 2908, "(function": 2909, "null": 2910, "Ġeng": 2911, "down": 2912, "Ġinclude": 2913, "ĠEn": 2914, "ĠDr": 2915, "Ġdb": 2916, "!!": 2917, "side": 2918, "Ġinit": 2919, "quired": 2920, "ĠShe": 2921, "Column": 2922, "react": 2923, "Ġann": 2924, "Ġstop": 2925, "Ġlater": 2926, "ĠThat": 2927, "ention": 2928, "df": 2929, "UG": 2930, "ILE": 2931, "Ġclient": 2932, "raft": 2933, "ffer": 2934, "POST": 2935, "elper": 2936, "Ġlove": 2937, "quote": 2938, "oud": 2939, "Ġjson": 2940, "Ġable": 2941, "Ġmen": 2942, "AX": 2943, "ĠCopyright": 2944, "Ã¶": 2945, "avig": 2946, "req": 2947, "Client": 2948, "});Ċ": 2949, ".Com": 2950, "erc": 2951, "ilt": 2952, "pecial": 2953, "_com": 2954, "room": 2955, ".Name": 2956, "Ġgive": 2957, "amb": 2958, "ike": 2959, "Ġcondition": 2960, "client": 2961, "ators": 2962, ":\"": 2963, "Ġcopy": 2964, "uture": 2965, "iversity": 2966, "ernal": 2967, "{{": 2968, "ĠCan": 2969, "ounc": 2970, "do": 2971, "Ġocc": 2972, "Ġappro": 2973, "thers": 2974, "ze": 2975, "Ġeither": 2976, "ĠFl": 2977, "Ġimportant": 2978, "Ġlead": 2979, "attr": 2980, "ART": 2981, "Equal": 2982, "Ġda": 2983, "etch": 2984, "entity": 2985, "Ġfamily": 2986, "adding": 2987, "Ġoption": 2988, "Ġexist": 2989, "ica": 2990, "ĠObject": 2991, "'ve": 2992, "vers": 2993, "itional": 2994, "output": 2995, "ĠTrue": 2996, "ĠOF": 2997, "_time": 2998, "Ġoffer": 2999, "Ġ});ĊĊ": 3000, "HER": 3001, "egin": 3002, "\"\"": 3003, "Ġwater": 3004, "Ġche": 3005, "ĠMy": 3006, "ored": 3007, "Ġstep": 3008, "ances": 3009, "CK": 3010, "AY": 3011, "à¸": 3012, "struction": 3013, "(C": 3014, "ouch": 3015, "Stream": 3016, "active": 3017, "ama": 3018, "Entity": 3019, "product": 3020, "(){Ċ": 3021, "Ġgovernment": 3022, "ĠID": 3023, "ajor": 3024, "And": 3025, "Ġdisplay": 3026, "Ð»": 3027, "Ġtimes": 3028, "Ġfour": 3029, "Ġfar": 3030, "Ġpresent": 3031, "ĠNS": 3032, "Ġ\\Ċ": 3033, "uest": 3034, "Ġbas": 3035, "echo": 3036, "child": 3037, "ifier": 3038, "Handler": 3039, "Ġlib": 3040, "Property": 3041, "translation": 3042, "Ġroom": 3043, "Ġonce": 3044, "Ġ[]": 3045, "center": 3046, "Ġresults": 3047, "Ġcontinue": 3048, "Ġtalk": 3049, "_get": 3050, "Ġgrow": 3051, ".sw": 3052, "eb": 3053, "ĠPublic": 3054, "OP": 3055, "ecute": 3056, "ols": 3057, "Ġ**": 3058, "\");ĊĊ": 3059, "Ġmass": 3060, "ured": 3061, ".class": 3062, "omic": 3063, "Ġmean": 3064, "ips": 3065, "Ġaut": 3066, ");čĊčĊ": 3067, "Ġuntil": 3068, "Ġmarket": 3069, "Ġarea": 3070, "uit": 3071, "Ġlength": 3072, "ĠWith": 3073, "structor": 3074, "event": 3075, "\"><": 3076, "ĠSp": 3077, "IV": 3078, "Ġmus": 3079, "iff": 3080, "Ġkind": 3081, "author": 3082, "ounds": 3083, "mb": 3084, "_key": 3085, "width": 3086, "pository": 3087, "Ġlight": 3088, "uk": 3089, "Row": 3090, "ohn": 3091, "alf": 3092, "vironment": 3093, "apper": 3094, "ollections": 3095, "Ġside": 3096, "_info": 3097, "Ġexample": 3098, "imary": 3099, "Ġwr": 3100, "Ġcamp": 3101, "cribe": 3102, "\"/": 3103, "Ġmiss": 3104, "way": 3105, "Ġbased": 3106, "Ġplan": 3107, "Vis": 3108, "omain": 3109, "unk": 3110, "Ġaway": 3111, "UP": 3112, "<T": 3113, "OS": 3114, "iod": 3115, "ĠMon": 3116, "âĢĻre": 3117, "Ġlik": 3118, "Ã§": 3119, "ively": 3120, ".v": 3121, "imer": 3122, "izer": 3123, "Sub": 3124, "Ġbutton": 3125, "ĠUp": 3126, "Ġexperience": 3127, "CL": 3128, "Ġrender": 3129, "_value": 3130, "Ġnear": 3131, "URL": 3132, "alt": 3133, "Ġcountry": 3134, "ibility": 3135, "(),Ċ": 3136, "ead": 3137, "Ġauthor": 3138, "Ġspecific": 3139, "base": 3140, "(name": 3141, "ones": 3142, "ĠDo": 3143, "Ġalong": 3144, "year": 3145, "Ġexpress": 3146, ".'": 3147, "env": 3148, "Ġbegin": 3149, "Ġsoftware": 3150, "Ġimp": 3151, "Ġwin": 3152, "Ã³n": 3153, "Ġthing": 3154, "Trans": 3155, "ĠTHE": 3156, "Ġ<?": 3157, "Ġwhy": 3158, "Ġdoesn": 3159, "ij": 3160, "ging": 3161, "ĉg": 3162, "Ġsingle": 3163, "offset": 3164, "arning": 3165, "ograph": 3166, "ley": 3167, "_count": 3168, "Ġanal": 3169, "create": 3170, "/m": 3171, "ĠReg": 3172, "unch": 3173, "=$": 3174, "isk": 3175, "Ġrights": 3176, "(M": 3177, "Ġ\"\"\"Ċ": 3178, "aper": 3179, ".model": 3180, "Ġpo": 3181, "empty": 3182, "artment": 3183, "Ġant": 3184, "ĠWhen": 3185, "Ġwomen": 3186, "ĠEd": 3187, "Ġseason": 3188, "Ġdest": 3189, "Ã£": 3190, "(h": 3191, "Ġpossible": 3192, "Ġsever": 3193, "Ġbtn": 3194, "Ġdidn": 3195, "Ġsent": 3196, "Ġenc": 3197, "Ġcommand": 3198, "Ġ],Ċ": 3199, "_x": 3200, "Ġrecent": 3201, "olution": 3202, "vector": 3203, "ĠBy": 3204, "ĠMay": 3205, "ĠAct": 3206, "»¿": 3207, "Ġmoney": 3208, "INT": 3209, "bsite": 3210, "ĉp": 3211, ".čĊ": 3212, "ï»¿": 3213, "sl": 3214, "attern": 3215, "ĠClass": 3216, "Ġtold": 3217, "udio": 3218, "current": 3219, "Ġequ": 3220, "Ġauto": 3221, "ĠState": 3222, "da": 3223, "msg": 3224, "));ĊĊ": 3225, "Ġworking": 3226, "Ġquery": 3227, "ĠBr": 3228, "Ġwindow": 3229, "auth": 3230, "only": 3231, "ĉt": 3232, "Ġleast": 3233, "agn": 3234, "Ġexpl": 3235, "itter": 3236, "aring": 3237, "Ġcolumn": 3238, "ĠGeneral": 3239, "\":\"": 3240, "eral": 3241, "rior": 3242, "Ġrecord": 3243, "IB": 3244, "EX": 3245, "Ġdat": 3246, "Ġmaking": 3247, "ued": 3248, "ĠCar": 3249, "emp": 3250, "\".": 3251, "ĠMed": 3252, "Ġclose": 3253, "Ġpercent": 3254, "Ġpast": 3255, "(g": 3256, ":(": 3257, "Ġwrite": 3258, "Ġmove": 3259, "Ġpat": 3260, "Control": 3261, ".To": 3262, "Ġvi": 3263, "*/Ċ": 3264, "inate": 3265, "'ll": 3266, "aged": 3267, "Null": 3268, "Ġspecial": 3269, "IZE": 3270, "Ġcity": 3271, "/*Ċ": 3272, "ĠEng": 3273, "ixed": 3274, "inary": 3275, "py": 3276, "Ġeff": 3277, "ario": 3278, "Ġtell": 3279, "avor": 3280, "Ġselect": 3281, "level": 3282, "imum": 3283, "oper": 3284, "Builder": 3285, "IP": 3286, "'),Ċ": 3287, "esc": 3288, "Ġfont": 3289, "\";ĊĊ": 3290, "ĠAm": 3291, "ished": 3292, "ills": 3293, "Inter": 3294, "OW": 3295, "Ġcourse": 3296, "Ġlate": 3297, "iddle": 3298, "Ġamount": 3299, "Ġasync": 3300, "ino": 3301, "cul": 3302, "Ġì": 3303, "andle": 3304, "_user": 3305, "Ġben": 3306, "ĠCal": 3307, "Ġ$_": 3308, "ĠRep": 3309, "Ġenough": 3310, "Token": 3311, ".user": 3312, "(j": 3313, "Sc": 3314, "Width": 3315, "now": 3316, "atform": 3317, "Ġlooking": 3318, "Ġhold": 3319, "Module": 3320, "ITY": 3321, "vo": 3322, "ison": 3323, ".Data": 3324, "yc": 3325, "Ġpot": 3326, "ĠTrump": 3327, "idual": 3328, "ides": 3329, "rt": 3330, "Ġproperty": 3331, "amework": 3332, "go": 3333, "Ġlow": 3334, "Ġpara": 3335, "Ġprice": 3336, "ury": 3337, "Ġtoday": 3338, "roy": 3339, "Ġ'/": 3340, "Ġpolit": 3341, "Ġ''": 3342, "ymb": 3343, "Ph": 3344, "Ġadv": 3345, "Ġattack": 3346, "ĠSte": 3347, "ROM": 3348, "ana": 3349, "Ġmeans": 3350, "Ġstory": 3351, "ids": 3352, "aken": 3353, "Ġmeet": 3354, "Ġmom": 3355, "ĠâĢĺ": 3356, "Ġ?>": 3357, "Ġden": 3358, "obile": 3359, "change": 3360, "ĠĠĠĠĠĠĠĠĠĠĠĠĊ": 3361, "ici": 3362, "na": 3363, "ĠForm": 3364, "Ġsort": 3365, "Select": 3366, "pare": 3367, "Ġthought": 3368, "_con": 3369, "Ġtask": 3370, "ocus": 3371, "ĠDE": 3372, "ĠMin": 3373, "Ġopt": 3374, "ĉbreak": 3375, "umer": 3376, "KE": 3377, "then": 3378, "Ġdet": 3379, "ĠTest": 3380, "ports": 3381, "Ġreview": 3382, "('/": 3383, "move": 3384, "Ġswitch": 3385, "ERT": 3386, "patch": 3387, "annot": 3388, "ãĤ": 3389, "Ġabove": 3390, "itive": 3391, "Ġquestion": 3392, "ĠQu": 3393, "ãĢĤĊĊ": 3394, "gle": 3395, "Ġword": 3396, "Ġprovide": 3397, "ĠReturn": 3398, "Ġresearch": 3399, "Ã£o": 3400, "ustr": 3401, "Ġpublish": 3402, "chema": 3403, "}}": 3404, "ĠCON": 3405, "-in": 3406, "allback": 3407, "Ġcover": 3408, "\\\\": 3409, "color": 3410, "ĠIS": 3411, "Ġwhether": 3412, "imate": 3413, "isc": 3414, "Bar": 3415, "Ġdiv": 3416, "Be": 3417, "ourn": 3418, "Ġhaving": 3419, "lem": 3420, "player": 3421, "abs": 3422, "amera": 3423, "ney": 3424, "Ġexc": 3425, "gether": 3426, "plied": 3427, "ao": 3428, "[$": 3429, "Ġ++": 3430, "ipe": 3431, "show": 3432, "/d": 3433, "[:": 3434, "agement": 3435, "lev": 3436, "_ID": 3437, "rary": 3438, "ades": 3439, "_se": 3440, "ause": 3441, "Ġemploy": 3442, "Ġ*/čĊ": 3443, "Ġfre": 3444, "Ġ'@": 3445, "Ġcomplet": 3446, "Ġlarge": 3447, "ral": 3448, "\\x": 3449, "Ġfac": 3450, "<String": 3451, "Ġcreated": 3452, "uper": 3453, ".state": 3454, "Ġhost": 3455, "eneric": 3456, "/b": 3457, "(!": 3458, "while": 3459, "ias": 3460, "BUG": 3461, "Ġ);ĊĊ": 3462, "Ġrole": 3463, "Reg": 3464, "ĠColor": 3465, "Start": 3466, "Ġporn": 3467, "top": 3468, "Ġweb": 3469, "Ġdev": 3470, "Ġdeal": 3471, "++)Ċ": 3472, "Integer": 3473, "position": 3474, ".on": 3475, "Ġ(\"": 3476, "ä¸": 3477, "Ġproblem": 3478, "sv": 3479, "Ġpress": 3480, "ABLE": 3481, "ATION": 3482, "ĠSee": 3483, "anch": 3484, "Ġthough": 3485, "leep": 3486, "Ġ<!--": 3487, "Ġpoints": 3488, ".J": 3489, "Ġ::": 3490, "ptr": 3491, "DB": 3492, "++;Ċ": 3493, ".png": 3494, "node": 3495, "soft": 3496, "pond": 3497, "Ġever": 3498, "Menu": 3499, "('#": 3500, "Ġservices": 3501, "pg": 3502, "})Ċ": 3503, "params": 3504, "Ġactually": 3505, "Ġ\"/": 3506, "Empty": 3507, "Method": 3508, "Ġident": 3509, "unic": 3510, "Ġmillion": 3511, "Ġaff": 3512, "style": 3513, "Ġconc": 3514, "ios": 3515, "ignment": 3516, "ULT": 3517, "Pr": 3518, "\";čĊ": 3519, "Ġunderstand": 3520, "uary": 3521, "Ġhappen": 3522, "Ġserver": 3523, "ĠCo": 3524, "SC": 3525, "Ġles": 3526, "Ġfiles": 3527, "Grid": 3528, "sql": 3529, "Ġoften": 3530, "Ġinfo": 3531, "_tr": 3532, "src": 3533, "ony": 3534, "Ġspace": 3535, "umb": 3536, "Ġpassword": 3537, "Ġstore": 3538, ",ĊĊ": 3539, "ĠWhat": 3540, "ged": 3541, "ĠFalse": 3542, "Us": 3543, "swer": 3544, "_index": 3545, "Ġformat": 3546, "most": 3547, "sm": 3548, "New": 3549, "Ġdetails": 3550, "Ġprob": 3551, "ĠAND": 3552, "()čĊ": 3553, "ilar": 3554, "Ġ${": 3555, "rypt": 3556, ".Collections": 3557, "$this": 3558, "ĠFree": 3559, "_of": 3560, "(false": 3561, "dated": 3562, "Ġ>>": 3563, "Ġface": 3564, "CTION": 3565, "Ġsave": 3566, "Ġtyp": 3567, "dev": 3568, "(\"#": 3569, "AGE": 3570, "container": 3571, "edit": 3572, "QL": 3573, "Ġitems": 3574, "Ġsocial": 3575, "ien": 3576, "ĠReact": 3577, ").ĊĊ": 3578, "Ġmar": 3579, "Ġredu": 3580, "ĠRE": 3581, ".put": 3582, "Ġmajor": 3583, "Cell": 3584, "next": 3585, "Ġexpected": 3586, "Ġyet": 3587, "Ġindiv": 3588, "tributes": 3589, "atis": 3590, "amed": 3591, "Ġfood": 3592, "Source": 3593, "(string": 3594, "Ġ+Ċ": 3595, "ites": 3596, "dr": 3597, "Ġmembers": 3598, "Ġcomb": 3599, "items": 3600, "ĠPer": 3601, "TH": 3602, "=True": 3603, "Ġbar": 3604, "_SE": 3605, "comm": 3606, "(w": 3607, ")ĊĊĊ": 3608, "Ġsend": 3609, "Ġinc": 3610, "unsigned": 3611, "FA": 3612, "Ġparams": 3613, "apping": 3614, "ros": 3615, "ugin": 3616, "fa": 3617, "Ġconnection": 3618, "Ġ};ĊĊ": 3619, "Ġbecome": 3620, "Mode": 3621, "Ġev": 3622, "Ġdiff": 3623, "ĠUnited": 3624, "Height": 3625, "fully": 3626, "images": 3627, "Ġmakes": 3628, "Ġglobal": 3629, "Ġcontact": 3630, "':Ċ": 3631, "Ġabs": 3632, "Ð°Ð": 3633, "float": 3634, "Ġexcept": 3635, "ĠPol": 3636, "Child": 3637, "typ": 3638, "Ġcertain": 3639, "iÃ³n": 3640, "OUT": 3641, "Ġimpro": 3642, "iles": 3643, "Ġ-->Ċ": 3644, "ĠPart": 3645, "values": 3646, "oss": 3647, "/**": 3648, "ilit": 3649, "ĠEvent": 3650, "curity": 3651, "ster": 3652, "Ġcharacter": 3653, "Ġnews": 3654, "Ġ\",": 3655, "Ġdevice": 3656, "cel": 3657, "login": 3658, "heet": 3659, "Default": 3660, "@\"": 3661, "ĉĠ": 3662, "click": 3663, "(value": 3664, "ĠAb": 3665, "Ġprevious": 3666, "ERROR": 3667, "ocal": 3668, "Ġmaterial": 3669, "Ġbelow": 3670, "ĠChrist": 3671, "Ġmedia": 3672, "cover": 3673, "ĠUI": 3674, "Ġfail": 3675, "Ġblack": 3676, "Ġcomponent": 3677, "ĠAmerican": 3678, "Ġadded": 3679, "Ġbuy": 3680, "stit": 3681, "Ġcame": 3682, "Ġdelete": 3683, "property": 3684, "oding": 3685, "Ġcard": 3686, "rops": 3687, "Ġhttps": 3688, "Ġroot": 3689, "Ġhandle": 3690, "CC": 3691, "Back": 3692, "emplate": 3693, "Ġgetting": 3694, "_by": 3695, "mail": 3696, "_sh": 3697, ".assert": 3698, "ĠDec": 3699, "(true": 3700, "Ġcomput": 3701, "Ġclaim": 3702, "'=>": 3703, "ĠSub": 3704, "Ġair": 3705, "ops": 3706, "nav": 3707, "ements": 3708, "(id": 3709, "Ġenter": 3710, "anged": 3711, "End": 3712, "Ġlocation": 3713, "Ġnight": 3714, "Ġdoing": 3715, "ĠRed": 3716, "lin": 3717, "}ĊĊĊ": 3718, "vider": 3719, "Ġpick": 3720, "Ġwatch": 3721, "essages": 3722, "Ġhuman": 3723, "Ġdam": 3724, "pend": 3725, "dir": 3726, "Ġtax": 3727, "Ġgirl": 3728, "reet": 3729, "Ġbox": 3730, "Ġstrong": 3731, "(v": 3732, "rel": 3733, "Ġinterface": 3734, "Ġmsg": 3735, "fect": 3736, "_at": 3737, "Ġhouse": 3738, "Ġtrack": 3739, "');ĊĊ": 3740, "je": 3741, "ĠJohn": 3742, "istr": 3743, "(S": 3744, "ube": 3745, "Ġce": 3746, "itted": 3747, "VER": 3748, "*)": 3749, "parent": 3750, "Ġapplication": 3751, "any": 3752, ".swing": 3753, "Ġpack": 3754, "\\u": 3755, "Ġpract": 3756, "Ġsection": 3757, "ctx": 3758, "Ġunsigned": 3759, ".Point": 3760, "ĠOne": 3761, "Ä±": 3762, "iple": 3763, "aid": 3764, "Ñĥ": 3765, "Vector": 3766, "byte": 3767, "Ġwait": 3768, "ĠÃł": 3769, "Ã¥": 3770, "Ġtogether": 3771, "Ġthrows": 3772, "FO": 3773, "'))": 3774, "host": 3775, "ising": 3776, ".view": 3777, "Ġterms": 3778, "framework": 3779, "-r": 3780, "Ġapply": 3781, "Ġsession": 3782, "Options": 3783, "uggest": 3784, "Ġothers": 3785, "witter": 3786, "Ġfund": 3787, "Init": 3788, "__(": 3789, "ensor": 3790, "GET": 3791, "Ġseveral": 3792, "ii": 3793, "[j": 3794, "IO": 3795, "Ġtemplate": 3796, "Position": 3797, "Ġecon": 3798, "achine": 3799, "Ġil": 3800, ".spring": 3801, "main": 3802, "elt": 3803, "iment": 3804, "Rec": 3805, "mm": 3806, "ĠUniversity": 3807, "ursor": 3808, "GL": 3809, "icture": 3810, "ithub": 3811, "cer": 3812, "cast": 3813, "From": 3814, "ales": 3815, "Ġsubject": 3816, "password": 3817, "ny": 3818, "Ġesc": 3819, ".write": 3820, "ï¼Į": 3821, "What": 3822, ".H": 3823, "Ġhistory": 3824, "ĠFe": 3825, "Ġindividual": 3826, "unit": 3827, "Ġ-->": 3828, "Ġdu": 3829, "IST": 3830, "Ġusers": 3831, "fs": 3832, "false": 3833, "unt": 3834, "Title": 3835, "Ġmot": 3836, "Ġfuture": 3837, "ached": 3838, "Ġstarted": 3839, "Ġmode": 3840, "Ġ'<": 3841, "_array": 3842, "Ġax": 3843, "'];Ċ": 3844, "ires": 3845, "There": 3846, "ught": 3847, "tml": 3848, "posed": 3849, "icult": 3850, "Ġtook": 3851, "Ġgames": 3852, "Ġ}}": 3853, "Ġ?>Ċ": 3854, "Ġproducts": 3855, "Is": 3856, "Ġbad": 3857, "ĠDes": 3858, ".path": 3859, "'ĊĊ": 3860, "ĠPost": 3861, "avel": 3862, "(:": 3863, "Ġneeds": 3864, "Ġknown": 3865, "Fl": 3866, "Ġexec": 3867, "Ġseen": 3868, "ume": 3869, "Ġborder": 3870, "Ġlive": 3871, "temp": 3872, "Per": 3873, "Ġvariable": 3874, "iet": 3875, "ĠDef": 3876, "Ġge": 3877, "eme": 3878, "_back": 3879, "first": 3880, "Ġprovided": 3881, "Ġfilename": 3882, "Ġhope": 3883, "uly": 3884, "auto": 3885, "find": 3886, "_string": 3887, "btn": 3888, "itude": 3889, "Attribute": 3890, "Ġyoung": 3891, ".txt": 3892, "Ġwebsite": 3893, "ĠProp": 3894, "Ġey": 3895, ">();Ċ": 3896, "ional": 3897, "ARR": 3898, "ictionary": 3899, "urther": 3900, ".</": 3901, "ALL": 3902, "Ġstudy": 3903, "ili": 3904, "Ġnetwork": 3905, "yl": 3906, "istance": 3907, "OK": 3908, "NU": 3909, "rest": 3910, "ĠST": 3911, "icrosoft": 3912, "Ġlimit": 3913, "Ġcut": 3914, "():Ċ": 3915, "Ġcou": 3916, "ogn": 3917, "Ġsizeof": 3918, "ival": 3919, "Ġwent": 3920, ".z": 3921, "Link": 3922, "Ġfire": 3923, "Ġacross": 3924, "Ġcommunity": 3925, "region": 3926, "NE": 3927, "Ref": 3928, "Ġofficial": 3929, "Ġvisit": 3930, "olve": 3931, "Ġreceived": 3932, "Ġtoken": 3933, "Ġmonths": 3934, "Ġanim": 3935, "Ġparticular": 3936, "styles": 3937, "ico": 3938, "Ġess": 3939, ".Control": 3940, "ĠÃ©": 3941, "ball": 3942, "Ġlearn": 3943, "inding": 3944, "Var": 3945, "Ġdecl": 3946, "(err": 3947, "LECT": 3948, "One": 3949, "pha": 3950, "Ġ~": 3951, "fort": 3952, "asure": 3953, "Ġmind": 3954, "ĠEnd": 3955, "Check": 3956, "Ġquick": 3957, "\"),": 3958, "AND": 3959, "utions": 3960, "Base": 3961, "________": 3962, "Ġcomment": 3963, "INE": 3964, "âĢĻve": 3965, "But": 3966, "ĠEl": 3967, "ĠUs": 3968, "Ġadmin": 3969, "mark": 3970, "ĠName": 3971, "`Ċ": 3972, "ĠType": 3973, "amic": 3974, "pc": 3975, "loor": 3976, "FT": 3977, "Ġopp": 3978, "cket": 3979, ")->": 3980, "tx": 3981, "Ġpur": 3982, "uel": 3983, "ymbol": 3984, "uation": 3985, "anger": 3986, "Ġbackground": 3987, "ecess": 3988, "efined": 3989, "........": 3990, "Ġdescription": 3991, "Ġrepresent": 3992, "\"));Ċ": 3993, "pression": 3994, "rowser": 3995, "Ġseries": 3996, "wards": 3997, "($_": 3998, "aise": 3999, "Ġhot": 4000, "acity": 4001, "ries": 4002, "actions": 4003, "Create": 4004, "adio": 4005, "amples": 4006, "Ġoriginal": 4007, "ensive": 4008, "font": 4009, "stream": 4010, "ï»¿using": 4011, ".springframework": 4012, "server": 4013, "Ġbill": 4014, "ACK": 4015, "ilename": 4016, "Ġframe": 4017, "Ġ=Ċ": 4018, "Edit": 4019, "adius": 4020, "Ġdraw": 4021, "anks": 4022, "Ġdeter": 4023, "Ġcomes": 4024, "_int": 4025, "Ġforeach": 4026, "angle": 4027, "Ġelect": 4028, "pected": 4029, "Header": 4030, "istration": 4031, "False": 4032, "ĠGame": 4033, "Ġfilter": 4034, "Activity": 4035, "Ġlarg": 4036, "inition": 4037, "Ġ\"<": 4038, "ised": 4039, "Ġremove": 4040, "ĠTrans": 4041, "met": 4042, "see": 4043, "Format": 4044, "Command": 4045, "ĠEX": 4046, "None": 4047, "Ġfront": 4048, "ASE": 4049, "ĠRec": 4050, "oundation": 4051, "Ġvo": 4052, "=\\\"": 4053, "(*": 4054, "Change": 4055, ".Write": 4056, "group": 4057, "ients": 4058, "uy": 4059, "Ġdig": 4060, "hr": 4061, "(-": 4062, "Ġgen": 4063, "number": 4064, "vec": 4065, "urope": 4066, "entry": 4067, "LL": 4068, "Ġste": 4069, "Valid": 4070, "'],": 4071, "_param": 4072, "Ġselected": 4073, "Ġaccording": 4074, "ĠDis": 4075, "Ġutil": 4076, "Buffer": 4077, "_error": 4078, "Ġassoci": 4079, "_SIZE": 4080, "Ġwor": 4081, "Ġprintf": 4082, "rag": 4083, "Âł": 4084, "DD": 4085, "ĠVal": 4086, "Ġactiv": 4087, "Eng": 4088, "etime": 4089, "Ġvirtual": 4090, "aign": 4091, "aur": 4092, "ĠPres": 4093, "ĠException": 4094, "Ġanything": 4095, "ĠOff": 4096, "Ġhours": 4097, "Ġwar": 4098, "Args": 4099, "aging": 4100, "Ġmodels": 4101, "ĠTime": 4102, "Ob": 4103, "ams": 4104, "joy": 4105, "Ġearly": 4106, ".read": 4107, "Ġcenter": 4108, "ĠInitial": 4109, "Ġlanguage": 4110, "length": 4111, "xy": 4112, "Ġsn": 4113, "Ġinf": 4114, "Post": 4115, "Ġago": 4116, "Ġeasy": 4117, "_code": 4118, "ĠANY": 4119, "_ch": 4120, "Ġdownload": 4121, "(T": 4122, "aved": 4123, "âĢĵ": 4124, "Ġstudents": 4125, "Ġfig": 4126, "light": 4127, "xx": 4128, "Ġbuffer": 4129, "ĠDep": 4130, "ĠMath": 4131, "ITH": 4132, "Ġvari": 4133, "Ġdue": 4134, "Factory": 4135, "Ġpor": 4136, "Ġep": 4137, "otype": 4138, "Ġcannot": 4139, "Ġwhite": 4140, "<int": 4141, "tern": 4142, "Ġregister": 4143, "Ġpred": 4144, "clus": 4145, "_date": 4146, "Ġ/**": 4147, "Ġauth": 4148, "Ġ[]Ċ": 4149, "Ġperiod": 4150, "nown": 4151, "Ġvot": 4152, "Ġscreen": 4153, "'d": 4154, "Types": 4155, "Ġtmp": 4156, "ÐµÐ": 4157, "ural": 4158, "Ġbenef": 4159, "_y": 4160, "Ġnet": 4161, "ĠStates": 4162, "']['": 4163, "ĠNe": 4164, "ĠNOT": 4165, "Ġneg": 4166, "Ġcommon": 4167, "scope": 4168, "Ġcred": 4169, "ges": 4170, "_TYPE": 4171, "Ġsuggest": 4172, "oom": 4173, ".ĊĊĊ": 4174, "Ġaccept": 4175, "Ġrandom": 4176, "erm": 4177, "ĠVector": 4178, "with": 4179, "TER": 4180, "(str": 4181, "Ġrespons": 4182, "Ġhit": 4183, ".Set": 4184, "grid": 4185, "ria": 4186, "Ġclick": 4187, "undle": 4188, "Case": 4189, "insert": 4190, "Utils": 4191, "Ġ\"\"\"": 4192, "Ġimplement": 4193, "atal": 4194, "tempt": 4195, "template": 4196, "ocr": 4197, "returns": 4198, "Ġplayers": 4199, "users": 4200, "edef": 4201, "ĠThese": 4202, "Ġamong": 4203, "Ġdeb": 4204, "ha": 4205, ".getElement": 4206, "Ġcirc": 4207, "Ġanswer": 4208, "Ġwalk": 4209, "Ġtreat": 4210, "ĠGe": 4211, "ĠCreate": 4212, "Ġage": 4213, "Ġreq": 4214, "OST": 4215, "angular": 4216, "Ñı": 4217, "Ġfive": 4218, "Ġdistributed": 4219, "Ġfriend": 4220, "TP": 4221, "Ġclean": 4222, "ows": 4223, ".Controls": 4224, "dis": 4225, "Ġwords": 4226, ".io": 4227, "zy": 4228, "Ġheader": 4229, "ĠCheck": 4230, "âĢĻm": 4231, "just": 4232, "holder": 4233, "=\"<?": 4234, "ĠGNU": 4235, "ĠCol": 4236, "imest": 4237, "entic": 4238, "{ĊĊ": 4239, "Ġtre": 4240, "last": 4241, "la": 4242, "ĠYork": 4243, "Lo": 4244, "Ġdiscuss": 4245, "ĠGod": 4246, "Ġissue": 4247, "rew": 4248, "Window": 4249, "Ġland": 4250, "Ġstream": 4251, "ĠPar": 4252, "Ġquality": 4253, "Par": 4254, "_num": 4255, "Ġsal": 4256, "elves": 4257, "ORD": 4258, "(user": 4259, "Ġworks": 4260, "Ġhalf": 4261, "enses": 4262, "vas": 4263, "Ġpolice": 4264, "(\"/": 4265, "ua": 4266, "Ġsimple": 4267, "Address": 4268, "Ġempty": 4269, "esh": 4270, "Update": 4271, "ĠCreated": 4272, "('.": 4273, ").Ċ": 4274, "Ġagre": 4275, "ĠFROM": 4276, "Ġcook": 4277, "Ġeverything": 4278, "ilities": 4279, ".status": 4280, "Ġrelations": 4281, "extern": 4282, "Ġnothing": 4283, "Ġrunning": 4284, "ĉvoid": 4285, "RI": 4286, "_a": 4287, "_CON": 4288, "por": 4289, ".sub": 4290, "require": 4291, "ĠCity": 4292, "ĠWest": 4293, "Ġmor": 4294, "store": 4295, "Equals": 4296, "oder": 4297, "Ġna": 4298, "Ġ[[": 4299, "Ġ('": 4300, "ĠDon": 4301, "ERS": 4302, "/p": 4303, ".json": 4304, "abor": 4305, "Ġsomeone": 4306, "_text": 4307, ".css": 4308, ".Tab": 4309, "ĠSome": 4310, "ato": 4311, "double": 4312, "Ġshare": 4313, "(void": 4314, "_dir": 4315, "Ġur": 4316, "Stack": 4317, "ĠWorld": 4318, ".X": 4319, "stract": 4320, "How": 4321, ".Generic": 4322, "icles": 4323, "Ġentry": 4324, "Ġchanges": 4325, "Ġpersonal": 4326, "(A": 4327, "Ġoffset": 4328, "_ptr": 4329, "Ġpie": 4330, "ĠJan": 4331, "-group": 4332, "module": 4333, "Items": 4334, "ĠHowever": 4335, "verage": 4336, ".Font": 4337, "Ġevents": 4338, ".min": 4339, "Ġinvol": 4340, "za": 4341, "Ġwhole": 4342, "Ġneeded": 4343, "Ġlikely": 4344, "rief": 4345, "ORM": 4346, "version": 4347, "Ġfight": 4348, "Ġein": 4349, "Frame": 4350, "gen": 4351, "ĠOut": 4352, "avigation": 4353, "Length": 4354, "illed": 4355, "quence": 4356, "Ġ!==": 4357, "ĠSoftware": 4358, "Ġwriting": 4359, "Ġrate": 4360, "'],Ċ": 4361, "Panel": 4362, "inner": 4363, "Ġ[\"": 4364, "Ġtw": 4365, "cd": 4366, "Ġ;Ċ": 4367, "_state": 4368, "ĠSm": 4369, "ĠMark": 4370, "))ĊĊ": 4371, "prot": 4372, "ĠMr": 4373, "method": 4374, "ustomer": 4375, "Icon": 4376, "Ġcorrect": 4377, "(object": 4378, "ĠMore": 4379, "Ġfall": 4380, "Ġvol": 4381, "Ġdevelopment": 4382, "ently": 4383, "Ġsi": 4384, "medi": 4385, "ving": 4386, "PP": 4387, "aker": 4388, "Ġindu": 4389, "Ġelif": 4390, "Ġpret": 4391, "Ġbelieve": 4392, "ns": 4393, "omet": 4394, "ĠIntern": 4395, "Rect": 4396, "So": 4397, ".error": 4398, "Read": 4399, "Ġfeatures": 4400, "Ġminutes": 4401, "---": 4402, "asing": 4403, "cret": 4404, "\">čĊ": 4405, ".annot": 4406, "Ġcollection": 4407, "'.": 4408, "Ġsimilar": 4409, "Ġtaken": 4410, "(\"%": 4411, "Order": 4412, "']Ċ": 4413, "-md": 4414, "ĠTH": 4415, "aced": 4416, "Ġisn": 4417, "/j": 4418, "Ġson": 4419, "graph": 4420, "ĠInteger": 4421, "Ġnecess": 4422, "reen": 4423, "Ġum": 4424, "Ġ\\<": 4425, "Ġmoment": 4426, "Ġbring": 4427, "Ġindic": 4428, "ysis": 4429, "Level": 4430, "verse": 4431, "urrenc": 4432, "_test": 4433, "Ġentire": 4434, "Down": 4435, "Ġ}ĊĊĊ": 4436, "(result": 4437, "ĠRead": 4438, "Ã¨": 4439, "Mod": 4440, "Ġtrying": 4441, "\"),Ċ": 4442, "Ġmember": 4443, "ĠCor": 4444, "ODO": 4445, "-control": 4446, "untime": 4447, "ĠSim": 4448, "Dialog": 4449, "plot": 4450, "_on": 4451, "Ġphys": 4452, "}/": 4453, "Ġnamespace": 4454, "ĉčĊ": 4455, "acc": 4456, "Player": 4457, "ARE": 4458, "Ġfoot": 4459, "Ġboard": 4460, "part": 4461, "Ġsus": 4462, "wise": 4463, "ĠMc": 4464, "Ġpush": 4465, "ATA": 4466, "Ġplease": 4467, "ried": 4468, "weet": 4469, "bit": 4470, "ided": 4471, "VE": 4472, "ĠSw": 4473, "UB": 4474, "Ġtypes": 4475, "edia": 4476, "Ġclos": 4477, "acebook": 4478, "When": 4479, "Ġedit": 4480, "igger": 4481, "Ġenerg": 4482, "Container": 4483, "Ġphot": 4484, "ĠCount": 4485, "ĠEurope": 4486, ".Is": 4487, "ĠRuss": 4488, "peed": 4489, "ĠStr": 4490, "Ġpy": 4491, "Ġcult": 4492, "Ġdefined": 4493, "ccount": 4494, "Ġobt": 4495, ".Location": 4496, "Ġthread": 4497, "ille": 4498, "Ġinstead": 4499, "strong": 4500, "ĠSec": 4501, "URE": 4502, "Ġidea": 4503, ".se": 4504, "emy": 4505, "selected": 4506, "Connection": 4507, "acing": 4508, "thread": 4509, ".next": 4510, "Ġcoll": 4511, "Ġfilm": 4512, "istic": 4513, "Ġcompet": 4514, "Ġconn": 4515, "though": 4516, "Ġcompan": 4517, "ocket": 4518, "Ġteach": 4519, "=(": 4520, "Ġphone": 4521, "Ġactive": 4522, "delete": 4523, "tries": 4524, "Ġmo": 4525, "Ġdeath": 4526, "});ĊĊ": 4527, "ocol": 4528, "Widget": 4529, "Ġarticle": 4530, "rodu": 4531, "andid": 4532, "Ñĭ": 4533, "ĠCr": 4534, "ka": 4535, "():": 4536, "lood": 4537, "ĉĉĉĊ": 4538, "Ġalmost": 4539, "Ġsell": 4540, "ervlet": 4541, "rip": 4542, "Unit": 4543, "Ġapplic": 4544, "Ġconnect": 4545, "Ġfeature": 4546, "Ġvia": 4547, "'),": 4548, "Ġlim": 4549, "ĠGu": 4550, "Engine": 4551, "Ġens": 4552, "Ġenvironment": 4553, "block": 4554, "HERE": 4555, "NULL": 4556, "gy": 4557, "tag": 4558, ")).": 4559, "exp": 4560, "Ġcompl": 4561, "Ġinstall": 4562, "Ġcomplete": 4563, "queue": 4564, "atural": 4565, "Ġgeneral": 4566, "thon": 4567, "Ġasked": 4568, "ores": 4569, "(res": 4570, "Ġreserved": 4571, "SP": 4572, "ĠâĢ¦": 4573, "ÅĤ": 4574, "Ġsignific": 4575, "Off": 4576, "ĠAg": 4577, "ĠJust": 4578, "ĠError": 4579, "Ġinfl": 4580, "adata": 4581, "Ġicon": 4582, "asks": 4583, "''": 4584, "_LO": 4585, "?.": 4586, "account": 4587, "Ġ(*": 4588, "')ĊĊ": 4589, "rap": 4590, "_var": 4591, "ĠFOR": 4592, "Ġparty": 4593, "ĠYour": 4594, "cat": 4595, "stry": 4596, ".new": 4597, "boot": 4598, "ĠNov": 4599, "Ġvector": 4600, "Ġnormal": 4601, "Ġfurther": 4602, "Repository": 4603, "Ġdatabase": 4604, "attle": 4605, "Ġmusic": 4606, "Ġspeed": 4607, "Ġdoc": 4608, "process": 4609, "IGHT": 4610, ".parse": 4611, "Ġtaking": 4612, "Ġviol": 4613, "ceed": 4614, "ĠAfter": 4615, "Ġforward": 4616, "Ġcrit": 4617, "\"/>Ċ": 4618, "rot": 4619, "Ġfailed": 4620, "efore": 4621, "Ġconcern": 4622, "oe": 4623, "ba": 4624, "Ġsender": 4625, "Ġterm": 4626, "has": 4627, "=\"#": 4628, "Ġpotential": 4629, "Num": 4630, "Ġpublished": 4631, ".close": 4632, "ĠImage": 4633, "straint": 4634, "UD": 4635, "ĠOb": 4636, "Ġprobably": 4637, "lim": 4638, "\":Ċ": 4639, "olume": 4640, "Ġconsum": 4641, "ague": 4642, "ensions": 4643, "Ġinvestig": 4644, "-year": 4645, "');": 4646, "-sm": 4647, "Ġenjoy": 4648, "orig": 4649, "ering": 4650, "cp": 4651, "leased": 4652, "plements": 4653, "Ġreturns": 4654, "pat": 4655, "BO": 4656, "ĠHouse": 4657, ".Label": 4658, "Ġweight": 4659, "ighb": 4660, "Ġconditions": 4661, "Ġexception": 4662, "description": 4663, "Ġtrad": 4664, "-to": 4665, "Ġ{}": 4666, "Ġmodule": 4667, "END": 4668, ".ap": 4669, ".props": 4670, "Ġconstructor": 4671, "aves": 4672, "Ġfavor": 4673, "ĠNow": 4674, ";i": 4675, "ĠMain": 4676, "_k": 4677, "eries": 4678, "âĢĻll": 4679, "transform": 4680, "imestamp": 4681, "Pre": 4682, "Ġmer": 4683, ".res": 4684, "stant": 4685, "Location": 4686, "_NAME": 4687, "Ġloss": 4688, "ĠĊĊ": 4689, "net": 4690, "Ġengine": 4691, "Block": 4692, "Ġissues": 4693, "Ġparse": 4694, "ĠBar": 4695, "Ġstay": 4696, "ĠJSON": 4697, "Ġdom": 4698, "airs": 4699, "wner": 4700, "Ġlower": 4701, "\",čĊ": 4702, "ĠDem": 4703, "ufact": 4704, "Ġps": 4705, "Ġperfect": 4706, "RL": 4707, "Ġeduc": 4708, "ls": 4709, "emory": 4710, "ARRANT": 4711, "uge": 4712, "Ġexact": 4713, ".key": 4714, "alled": 4715, "ech": 4716, "ief": 4717, "\\/": 4718, "oke": 4719, "Ġformer": 4720, "alloc": 4721, "Ġsix": 4722, "ida": 4723, "Ġmargin": 4724, "Ġheart": 4725, "ald": 4726, "pack": 4727, ".getElementById": 4728, "ĠWARRANT": 4729, "Ġrather": 4730, "Ġbuilding": 4731, "erman": 4732, "lice": 4733, "Ġquestions": 4734, "izes": 4735, "lege": 4736, "irectory": 4737, "Ġje": 4738, "Ġcas": 4739, "props": 4740, "utf": 4741, "Ġsecurity": 4742, "Ġhowever": 4743, "weight": 4744, "Ġinside": 4745, "Ġpresident": 4746, "Char": 4747, "ĠWITH": 4748, ".map": 4749, "Ġgraph": 4750, "Ġtag": 4751, "_status": 4752, "Ġattempt": 4753, "opp": 4754, "uses": 4755, "ĉconst": 4756, "Ġround": 4757, ",$": 4758, "Ġfriends": 4759, "Email": 4760, "?>": 4761, "Resource": 4762, "KEY": 4763, "osp": 4764, ".query": 4765, "ĠNorth": 4766, "ables": 4767, "istrib": 4768, "_class": 4769, "ello": 4770, "That": 4771, "Ðº": 4772, "pecially": 4773, "ĠPresident": 4774, "Ġcampaign": 4775, "Ġalt": 4776, "area": 4777, "Ġchall": 4778, "Ġopport": 4779, ".Con": 4780, "Ġenergy": 4781, "like": 4782, ".string": 4783, "ington": 4784, ")*": 4785, "yy": 4786, "Ġprofession": 4787, "irth": 4788, "Ġseg": 4789, "æľ": 4790, "Ġhor": 4791, "iers": 4792, "can": 4793, "Ġbehind": 4794, "Product": 4795, "fg": 4796, "ĠSk": 4797, ".jpg": 4798, "?:": 4799, "];ĊĊ": 4800, "Ġcallback": 4801, "ĠHttp": 4802, "ÑĮ": 4803, "long": 4804, "MS": 4805, "ATH": 4806, "Ġraise": 4807, "Ġwanted": 4808, "rown": 4809, "utor": 4810, "lt": 4811, "]=": 4812, "eline": 4813, "MA": 4814, "Ġsepar": 4815, "cs": 4816, "semb": 4817, "Dis": 4818, "bserv": 4819, "ĠWill": 4820, "Ġpolicy": 4821, "Ġthird": 4822, "phone": 4823, "Ġbed": 4824, "/g": 4825, ".__": 4826, "ĠInc": 4827, "izing": 4828, ".remove": 4829, "instance": 4830, ".type": 4831, "Ġserv": 4832, "Each": 4833, "Ġhar": 4834, "ĠMessage": 4835, "(key": 4836, "SELECT": 4837, "Pos": 4838, "));čĊ": 4839, "Ġrecomm": 4840, "Ġtraining": 4841, "ĠEnt": 4842, "ĠChar": 4843, "icht": 4844, "(file": 4845, "Ġprior": 4846, "Game": 4847, "Ġexit": 4848, "Params": 4849, ".core": 4850, "PC": 4851, "nes": 4852, "anced": 4853, "(request": 4854, "Password": 4855, "}>Ċ": 4856, "Ġmag": 4857, "Ġrelease": 4858, "Ġshall": 4859, "udent": 4860, "ĠSouth": 4861, "ando": 4862, ":'": 4863, ".TabIndex": 4864, "sk": 4865, "anner": 4866, "isset": 4867, "Ġoutside": 4868, "ledge": 4869, "Ġå": 4870, "ĠRob": 4871, "Ġimm": 4872, "!Ċ": 4873, "ĠWeb": 4874, "Des": 4875, "BC": 4876, "ancial": 4877, "Route": 4878, "Dec": 4879, "ferences": 4880, "Ġpurch": 4881, "ĠModel": 4882, "ctor": 4883, "gn": 4884, "_start": 4885, "_un": 4886, ".*": 4887, "ises": 4888, "Ġground": 4889, "Ġunique": 4890, "Ġbeaut": 4891, "{\"": 4892, "Ġpour": 4893, "ĠOct": 4894, "Ġtree": 4895, "sets": 4896, "_res": 4897, "')->": 4898, "_reg": 4899, "(\"\\": 4900, "Ġbyte": 4901, "Bl": 4902, "Ġdating": 4903, "Ġmatter": 4904, "ĠRem": 4905, "Ġ'../": 4906, "ĠAug": 4907, "ĠLa": 4908, "Ġ$(": 4909, "ournal": 4910, "iam": 4911, "Ġshows": 4912, "write": 4913, "Ġball": 4914, "Ġsimply": 4915, "Ġfast": 4916, "Ġmemory": 4917, "ASS": 4918, "ĠOf": 4919, "oved": 4920, "ante": 4921, "aul": 4922, "istry": 4923, ")));Ċ": 4924, "Ġfit": 4925, "<string": 4926, "Ġpolitical": 4927, "ancel": 4928, "_.": 4929, "card": 4930, ".current": 4931, "och": 4932, "_image": 4933, "\\t": 4934, "#Ċ": 4935, "(L": 4936, "Ġindustry": 4937, "coming": 4938, "Ġextra": 4939, "Ġreported": 4940, ".start": 4941, "Ġresources": 4942, "Ġimg": 4943, "flow": 4944, "_EX": 4945, "(null": 4946, "ĠPre": 4947, "Ġwrong": 4948, "interface": 4949, "Parameter": 4950, "ners": 4951, "á»": 4952, "ture": 4953, "ersist": 4954, "ountry": 4955, "Ġseems": 4956, "alance": 4957, "dest": 4958, "ĉString": 4959, "Ġmaint": 4960, "Ġunit": 4961, "acters": 4962, "ĠTR": 4963, "iful": 4964, "exports": 4965, "project": 4966, "Application": 4967, "legate": 4968, "Ġtakes": 4969, "term": 4970, "Ġetc": 4971, "uster": 4972, "Ġappear": 4973, "address": 4974, "Ġfem": 4975, "hs": 4976, "Ġhom": 4977, ",-": 4978, "Ġdifficult": 4979, "Ġcoming": 4980, "Open": 4981, "Ġsettings": 4982, "ĠWar": 4983, "ĠThen": 4984, "Ġautom": 4985, "ĠFoundation": 4986, "Ġquite": 4987, "Description": 4988, "Ġblog": 4989, "iqu": 4990, "PS": 4991, "_field": 4992, "Json": 4993, "SSION": 4994, "ĠSch": 4995, "ĠLO": 4996, "Ġdescri": 4997, "Ġeveryone": 4998, "Ġpretty": 4999, "Ġlonger": 5000, "Ġmenu": 5001, "Ġcurrently": 5002, "sec": 5003, "Ġrelationship": 5004, "ĠMap": 5005, "aset": 5006, "Ġparameters": 5007, "Ġcrush": 5008, "\"čĊ": 5009, "ILITY": 5010, "igration": 5011, "Ġcout": 5012, "total": 5013, "Ġnames": 5014, "ndef": 5015, "\");": 5016, "riend": 5017, "ynamic": 5018, "Ġeffort": 5019, "Ġactual": 5020, "Ġfields": 5021, "OUN": 5022, "ters": 5023, "Ġfix": 5024, "_model": 5025, "Ġcases": 5026, "CA": 5027, "My": 5028, "Interface": 5029, "ĠSE": 5030, "]]": 5031, "alle": 5032, "ĠNational": 5033, "ĠArrayList": 5034, "inline": 5035, ".V": 5036, "ara": 5037, "refix": 5038, "asc": 5039, "Reader": 5040, "ĠÐ¿": 5041, "astic": 5042, "(()": 5043, "Cl": 5044, ".annotation": 5045, "Ġperformance": 5046, "aily": 5047, ".toString": 5048, ".net": 5049, "views": 5050, ".end": 5051, "ayers": 5052, "late": 5053, "ĠApr": 5054, "ederal": 5055, "'])": 5056, ".body": 5057, "Ġhigher": 5058, "_fl": 5059, "cr": 5060, "alert": 5061, "_node": 5062, "ĠGoogle": 5063, "Ġitself": 5064, "Auth": 5065, "urrency": 5066, "Ġsignificant": 5067, "append": 5068, "Ġrespect": 5069, "strap": 5070, "Ġuna": 5071, "riteria": 5072, "PORT": 5073, ".apache": 5074, "Output": 5075, "Ġprogress": 5076, "Ġmid": 5077, "ĠMicrosoft": 5078, "Ġresource": 5079, "ablish": 5080, "Ġdim": 5081, ".load": 5082, ".App": 5083, "Ġdirection": 5084, "Ġadditional": 5085, "Ġnumbers": 5086, "Ġcompanies": 5087, ".Th": 5088, "Ġsound": 5089, "username": 5090, "Ġstatement": 5091, "Ġalert": 5092, "Ġcontract": 5093, "home": 5094, "_length": 5095, ".Component": 5096, "ev": 5097, ".Ex": 5098, "ï¼ļ": 5099, "\";": 5100, "ĠHigh": 5101, "Ġ)ĊĊ": 5102, "ĠPoint": 5103, "oph": 5104, "Ġlines": 5105, "->_": 5106, "\")ĊĊ": 5107, "ox": 5108, "application": 5109, "Ġ]Ċ": 5110, "ĊĊĊĊĊĊ": 5111, "Ġsoon": 5112, "ctions": 5113, "inger": 5114, "Ġjoin": 5115, "ĠPe": 5116, "Ġë": 5117, "Ġlas": 5118, ".E": 5119, "css": 5120, "/or": 5121, "ĠStart": 5122, "ĠTO": 5123, "Ġsubs": 5124, "conn": 5125, "components": 5126, "DEBUG": 5127, "quare": 5128, "Function": 5129, "endar": 5130, ".index": 5131, "Ġfill": 5132, "ÄĻ": 5133, "Ġchoose": 5134, "how": 5135, "ĠAmerica": 5136, "assets": 5137, "------------": 5138, "ĠValue": 5139, "Ġoffice": 5140, "Ġveh": 5141, "Ġtransform": 5142, "ĠArt": 5143, "Ġinde": 5144, "Ġfn": 5145, "Ġimplements": 5146, "ango": 5147, "plete": 5148, "+\"": 5149, "tmp": 5150, "amily": 5151, "Ġhash": 5152, "missions": 5153, "EST": 5154, "gt": 5155, "Provider": 5156, "Ġflag": 5157, "Ġparticip": 5158, "den": 5159, "ĠReturns": 5160, "Ġnote": 5161, "Ã¼r": 5162, "pm": 5163, "ideos": 5164, "Ġspecified": 5165, "ĠEN": 5166, "ester": 5167, "olid": 5168, "Ġupon": 5169, "(std": 5170, "ĉv": 5171, "Ġ'\\": 5172, "uz": 5173, "Ġvert": 5174, "Ġvict": 5175, "ĉself": 5176, "Ġ\"$": 5177, ".k": 5178, "Ġgroups": 5179, "github": 5180, "lang": 5181, "Ġmut": 5182, "TO": 5183, "Ġve": 5184, "ĠPlease": 5185, ";ĊĊĊ": 5186, "access": 5187, "Ġ{\"": 5188, "rea": 5189, "Ġrisk": 5190, "icker": 5191, "oggle": 5192, "ĉwhile": 5193, "ANG": 5194, ".send": 5195, "Ġwoman": 5196, "Ġgets": 5197, "Ġign": 5198, "ĠId": 5199, "_log": 5200, "ONE": 5201, "Ġevid": 5202, "ĠHar": 5203, "_sub": 5204, "Ġendl": 5205, "Ġincluded": 5206, "());ĊĊ": 5207, "ĠAp": 5208, "igr": 5209, "Ġsem": 5210, "ĠBlack": 5211, "doc": 5212, "_table": 5213, "-up": 5214, "Ġcause": 5215, "Ġ..": 5216, "Ġvan": 5217, "_dict": 5218, "Ġfocus": 5219, "IND": 5220, "CESS": 5221, ".Log": 5222, "Ġmultiple": 5223, "ido": 5224, "Ġregard": 5225, "-M": 5226, "andler": 5227, "ourse": 5228, "Ġdeg": 5229, ".U": 5230, "Ġaddition": 5231, "Ġvarious": 5232, "Ġreceive": 5233, "ÐµÐ½": 5234, "ĠHT": 5235, "Obj": 5236, "DF": 5237, "Ġincrease": 5238, "ĠOpen": 5239, "];": 5240, "Ġcommit": 5241, "?Ċ": 5242, "ategories": 5243, "atory": 5244, "ship": 5245, "ĠMich": 5246, "Ġhtml": 5247, "romise": 5248, "Ġleave": 5249, "Ġstrateg": 5250, "aven": 5251, "ĠConsole": 5252, "known": 5253, "-n": 5254, "_LE": 5255, ".component": 5256, "Ġbre": 5257, "Session": 5258, "iance": 5259, "Ġalign": 5260, "typedef": 5261, "_result": 5262, "ĠWHERE": 5263, ".split": 5264, "Ġreading": 5265, "FAULT": 5266, "Ġclo": 5267, "Ġnotice": 5268, "_pr": 5269, "arter": 5270, "Ġlock": 5271, "Ġstandard": 5272, "etic": 5273, "ellow": 5274, "Ġpadding": 5275, "ĠHis": 5276, "Ġstates": 5277, "_cast": 5278, "(P": 5279, "aa": 5280, "Ġinternal": 5281, "ean": 5282, "ĠPRO": 5283, "ĠKey": 5284, "Ġespecially": 5285, "ming": 5286, "Ġcross": 5287, "Ġnational": 5288, "_object": 5289, "filter": 5290, "Ġscript": 5291, ".update": 5292, "_i": 5293, "ĠAssert": 5294, "/core": 5295, "%%%%": 5296, "Ġproblems": 5297, "istor": 5298, "Ġ.=": 5299, "Ġarch": 5300, "Ġwritten": 5301, "Ġmilit": 5302, "MENT": 5303, ".ch": 5304, "cape": 5305, "ĠMus": 5306, "_config": 5307, "ĠAPI": 5308, "foot": 5309, "Ġimages": 5310, "endl": 5311, ".In": 5312, "First": 5313, "Ġplatform": 5314, ".prot": 5315, "Option": 5316, "ste": 5317, "ĠTODO": 5318, "Ġforce": 5319, ".cont": 5320, "ĉecho": 5321, "ĠDav": 5322, "Ptr": 5323, "(B": 5324, "RT": 5325, "ĠBase": 5326, "]['": 5327, "Ġannounc": 5328, "console": 5329, "ĠPy": 5330, "ds": 5331, ".as": 5332, "Ġprevent": 5333, "apan": 5334, "Ġ{'": 5335, "}</": 5336, "ĠService": 5337, "ĠSen": 5338, "ador": 5339, "profile": 5340, "Top": 5341, "Ġiter": 5342, "po": 5343, "IES": 5344, "JSON": 5345, "IE": 5346, "iant": 5347, "ãĢģ": 5348, "_j": 5349, "ĠSept": 5350, "_map": 5351, "bum": 5352, "(context": 5353, "ĠHome": 5354, "ians": 5355, "GB": 5356, "Ġliving": 5357, "Ġpattern": 5358, "(input": 5359, "icient": 5360, "Core": 5361, "Ġentity": 5362, "Ġinteg": 5363, "Changed": 5364, "Ġuseful": 5365, ".info": 5366, "Ġtool": 5367, "(item": 5368, "Ġok": 5369, "Ġfeed": 5370, "IX": 5371, "Ã©s": 5372, "ĠNews": 5373, "remove": 5374, "erry": 5375, "ĉĉĉĉĉĉĉĉĉ": 5376, "ipment": 5377, "ares": 5378, "Do": 5379, "Current": 5380, ".content": 5381, ".Group": 5382, "ustral": 5383, "ĠÑģ": 5384, "})": 5385, "Ġpopular": 5386, "Ġstre": 5387, "Ġmethods": 5388, "_ERROR": 5389, "Left": 5390, "cal": 5391, "bsp": 5392, ".ToString": 5393, "Ġdir": 5394, "Ġallowed": 5395, "Ġimpact": 5396, "\")]Ċ": 5397, ".config": 5398, "Ġelements": 5399, "Ġprote": 5400, "Ġtrain": 5401, ".tr": 5402, "rs": 5403, "ĠRepublic": 5404, "ĠTask": 5405, "aries": 5406, "(D": 5407, "(get": 5408, "âĢ¦ĊĊ": 5409, "Ġrelated": 5410, "Ġvers": 5411, "Ġsil": 5412, "Ġ\"\";Ċ": 5413, "Ġcmd": 5414, "Ġtechnology": 5415, ".width": 5416, "Float": 5417, "ĠUse": 5418, "Body": 5419, "should": 5420, ".join": 5421, "Font": 5422, "llum": 5423, "ycle": 5424, "ĠBrit": 5425, "Ġmit": 5426, "Ġscale": 5427, "Ġ(_": 5428, "ernel": 5429, "\"))Ċ": 5430, "Ġscore": 5431, "/v": 5432, "Ġstudent": 5433, "UC": 5434, ".show": 5435, "Ġaverage": 5436, "Enabled": 5437, "(ex": 5438, "common": 5439, "imation": 5440, ":@\"": 5441, "chie": 5442, "Ġ...ĊĊ": 5443, "river": 5444, "ĠMarch": 5445, "category": 5446, "fin": 5447, "Ġcourt": 5448, "Ð²": 5449, "Server": 5450, "Ġcontainer": 5451, "-st": 5452, "_for": 5453, "Ġparts": 5454, "Ġdecision": 5455, "obs": 5456, "oub": 5457, "mitted": 5458, "Ġ$('#": 5459, "Ġsaw": 5460, "Ġapproach": 5461, "ICE": 5462, "Ġsaying": 5463, "Ġanyone": 5464, "meta": 5465, "SD": 5466, "Ġsong": 5467, "display": 5468, "Oper": 5469, "outes": 5470, "Ġchannel": 5471, "Ġchanged": 5472, "Ãª": 5473, "Ġfinally": 5474, "_number": 5475, "Please": 5476, "à¤": 5477, "oring": 5478, "-re": 5479, "Ġkill": 5480, "Ġdrug": 5481, "window": 5482, "Ġconvert": 5483, "ombre": 5484, "Ġways": 5485, "Helper": 5486, "ĠFirst": 5487, "(__": 5488, "urity": 5489, "ĠWindows": 5490, "ees": 5491, "Ġmat": 5492, "rapper": 5493, "Ġplus": 5494, "anges": 5495, "\"].": 5496, "azon": 5497, "/t": 5498, "lat": 5499, "aste": 5500, "Ġprofile": 5501, "Ġready": 5502, "#ifndef": 5503, "rote": 5504, "Ġsense": 5505, "Gener": 5506, "ĠConfig": 5507, "omy": 5508, "ĠJune": 5509, "Ġlatest": 5510, "Ġsaf": 5511, "Ġregion": 5512, "Ġdeep": 5513, "witch": 5514, "ĠPark": 5515, "}`": 5516, "ĠFrom": 5517, "II": 5518, "Ġcv": 5519, "Ġreach": 5520, "Ġcounter": 5521, "ĠWork": 5522, "ĠURL": 5523, "ĠUpdate": 5524, "',čĊ": 5525, "Ġimmedi": 5526, "close": 5527, "ados": 5528, "ferred": 5529, "Ġweeks": 5530, "urg": 5531, "Ġdamage": 5532, "Ġlost": 5533, "ani": 5534, "_lo": 5535, "Ġhimself": 5536, "Ġdog": 5537, ")]Ċ": 5538, "ï¿": 5539, "pir": 5540, "tt": 5541, "Ġpaper": 5542, "Ġthems": 5543, "second": 5544, "Ġstaff": 5545, "ĠInput": 5546, "\"+": 5547, "ĠFacebook": 5548, "Ġalloc": 5549, "Ġsched": 5550, "ACE": 5551, "Ġthemselves": 5552, "ĠComponent": 5553, "Ġdriver": 5554, "ja": 5555, "(path": 5556, "Ġcategory": 5557, "alls": 5558, "pu": 5559, "lluminate": 5560, "ĠAction": 5561, ".button": 5562, "ĠGL": 5563, "istics": 5564, "Ġoil": 5565, "Ġstock": 5566, ">'": 5567, "Ġdead": 5568, "VAL": 5569, "QUE": 5570, "Ġcharg": 5571, "Return": 5572, "Ġful": 5573, "dom": 5574, "Ġrules": 5575, "Ġmodify": 5576, "Ġeval": 5577, "ham": 5578, "atement": 5579, "\\<": 5580, "ula": 5581, "=False": 5582, "RA": 5583, "Ġcontains": 5584, "Ġstack": 5585, "mar": 5586, "Ġ{}Ċ": 5587, "Ġundefined": 5588, "Ass": 5589, "ĠChina": 5590, "vey": 5591, "*Ċ": 5592, "Ġplaying": 5593, ")/": 5594, "actor": 5595, "Ġbottom": 5596, "lier": 5597, "ĠNumber": 5598, "Ġcouple": 5599, "DC": 5600, "ĠSO": 5601, "gor": 5602, ".setText": 5603, "success": 5604, "command": 5605, "Filter": 5606, "ĠOur": 5607, "_item": 5608, "Ġctx": 5609, "Ġroad": 5610, "Version": 5611, "case": 5612, "urt": 5613, "avior": 5614, "ych": 5615, "sembly": 5616, "ĠProduct": 5617, "Ġheld": 5618, "afe": 5619, "Ġincludes": 5620, "<quote": 5621, "Ġavoid": 5622, "ĠFin": 5623, "ĠMod": 5624, "Ġtab": 5625, "ano": 5626, "Ã±": 5627, "ipping": 5628, "-e": 5629, "Ġinsert": 5630, "target": 5631, "chan": 5632, ".Model": 5633, "IME": 5634, "\\Ċ": 5635, "Ġmachine": 5636, "avy": 5637, "ĠNO": 5638, "ĠInter": 5639, "Ġoperation": 5640, "modal": 5641, "Tag": 5642, "]:": 5643, "Ġproduction": 5644, "Ġareas": 5645, "Ġren": 5646, "_from": 5647, "nbsp": 5648, "Ġoperator": 5649, "men": 5650, "apped": 5651, "_per": 5652, "zen": 5653, "(\".": 5654, ".save": 5655, "=\"{{": 5656, "Ġtor": 5657, "(response": 5658, "Ġcandid": 5659, "Ġconv": 5660, "ailed": 5661, "ĠLib": 5662, "comp": 5663, "ura": 5664, "ï¿½": 5665, "ĠHere": 5666, "Ġargument": 5667, "hood": 5668, "Ġestablish": 5669, "ography": 5670, "ĠonClick": 5671, "ambda": 5672, "Ġsch": 5673, "Ġmovie": 5674, "Ġsec": 5675, "Ġactivity": 5676, "Ø§": 5677, "Ġsql": 5678, "_all": 5679, "incip": 5680, "Ġprovides": 5681, "Ġsys": 5682, "acket": 5683, "Ġwasn": 5684, "Ġuses": 5685, "ĠFunction": 5686, ".google": 5687, "ĠResult": 5688, "Visible": 5689, "agma": 5690, "elcome": 5691, "ĠSy": 5692, "ĠCent": 5693, "ALSE": 5694, "aciÃ³n": 5695, "EXT": 5696, "Ġlicense": 5697, "ĠLong": 5698, "Ġaccom": 5699, "Ġability": 5700, ".height": 5701, "Active": 5702, "ological": 5703, "oly": 5704, ")),": 5705, ".Se": 5706, "Ġparameter": 5707, "prite": 5708, "ABILITY": 5709, ".service": 5710, "ĠGroup": 5711, "_query": 5712, "ĠItem": 5713, "ining": 5714, "Ġjud": 5715, "ims": 5716, "fix": 5717, "inder": 5718, "agram": 5719, "Ġfunctions": 5720, "Ġexperi": 5721, "ĠEm": 5722, "Ġrot": 5723, "Ġpen": 5724, ".btn": 5725, "ĠAS": 5726, "#ifdef": 5727, "Ġchoice": 5728, "ĠPage": 5729, "_PRO": 5730, "QU": 5731, "åı": 5732, "antity": 5733, "ÂŃ": 5734, "words": 5735, "Ġreadonly": 5736, "Ġflex": 5737, "protected": 5738, "ĠAny": 5739, "Ġcharacters": 5740, "enced": 5741, "ĠJuly": 5742, "iler": 5743, "Card": 5744, "urance": 5745, "Ġrev": 5746, ".event": 5747, "aly": 5748, "Ġwonder": 5749, "ĠPort": 5750, "Ġlegal": 5751, "role": 5752, "Ġten": 5753, "Ġgoes": 5754, "MP": 5755, "white": 5756, "):čĊ": 5757, "))čĊ": 5758, "Ġreference": 5759, "Ġmis": 5760, "ĠProject": 5761, "icks": 5762, ">&": 5763, "CON": 5764, "Ġrepl": 5765, "Ġregular": 5766, "Storage": 5767, "ramework": 5768, "Ġgoal": 5769, "Ġtouch": 5770, ".widget": 5771, "Ġbuilt": 5772, "des": 5773, "Part": 5774, "(re": 5775, "Ġworth": 5776, "hib": 5777, "game": 5778, "ĠÐ²": 5779, "acion": 5780, "ĠWhite": 5781, "(type": 5782, "(`": 5783, "Ġnatural": 5784, "Ġinj": 5785, "Ġcalcul": 5786, "ĠApril": 5787, ".List": 5788, "Ġassociated": 5789, "ĉSystem": 5790, "~~": 5791, "=[": 5792, "Ġstorage": 5793, "Ġbytes": 5794, "Ġtravel": 5795, "Ġsou": 5796, "Ġpassed": 5797, "!=": 5798, "ascript": 5799, ".open": 5800, "Ġgrid": 5801, "Ġbus": 5802, "Ġrecogn": 5803, "Ab": 5804, "Ġhon": 5805, "ĠCenter": 5806, "Ġprec": 5807, "build": 5808, "HTML": 5809, "ĠSan": 5810, "Ġcountries": 5811, "aled": 5812, "token": 5813, "kt": 5814, "Ġqual": 5815, "Last": 5816, "adow": 5817, "Ġmanufact": 5818, "idad": 5819, "jango": 5820, "Next": 5821, "xf": 5822, ".a": 5823, "Ġporno": 5824, "ĠPM": 5825, "erve": 5826, "iting": 5827, "_th": 5828, "ci": 5829, "=None": 5830, "gs": 5831, "Ġlogin": 5832, "atives": 5833, "']);Ċ": 5834, "Äħ": 5835, "Ġill": 5836, "IA": 5837, "children": 5838, "DO": 5839, "Ġlevels": 5840, "Ġ{{": 5841, "Ġlooks": 5842, "Ġ\"#": 5843, "ToString": 5844, "Ġnecessary": 5845, "ĠĠĠĊ": 5846, "cell": 5847, "Entry": 5848, "Ġ'#": 5849, "Ġextrem": 5850, "Selector": 5851, "Ġplaceholder": 5852, "Load": 5853, "Ġreleased": 5854, "ORE": 5855, "Enumer": 5856, "ĠTV": 5857, "SET": 5858, "inq": 5859, "Press": 5860, "ĠDepartment": 5861, "Ġproperties": 5862, "Ġrespond": 5863, "Search": 5864, "ael": 5865, "Ġrequ": 5866, "ĠBook": 5867, "/Ċ": 5868, "(st": 5869, "Ġfinancial": 5870, "icket": 5871, "_input": 5872, "Ġthreat": 5873, "(in": 5874, "Strip": 5875, "ìĿ": 5876, "Ã§Ã£o": 5877, "Ġevidence": 5878, "));": 5879, "ĠBro": 5880, "Ġ[];Ċ": 5881, "Ġou": 5882, "buf": 5883, "Script": 5884, "dat": 5885, "Ġrule": 5886, "#import": 5887, "=\"/": 5888, "Serial": 5889, "Ġstarting": 5890, "[index": 5891, "ae": 5892, "Ġcontrib": 5893, "session": 5894, "_new": 5895, "utable": 5896, "ober": 5897, "Ġ\"./": 5898, "Ġlogger": 5899, "Ġrecently": 5900, "Ġreturned": 5901, "ččĊ": 5902, ")))Ċ": 5903, "itions": 5904, "Ġseek": 5905, "Ġcommunic": 5906, "Ġ\".": 5907, "Ġusername": 5908, "ECT": 5909, "DS": 5910, "Ġotherwise": 5911, "ĠGerman": 5912, ".aw": 5913, "Adapter": 5914, "ixel": 5915, "Ġsystems": 5916, "Ġdrop": 5917, "Ġstructure": 5918, "Ġ$(\"#": 5919, "encies": 5920, "anning": 5921, "ĠLink": 5922, "ĠResponse": 5923, "Ġstri": 5924, "Å¼": 5925, "ĠDB": 5926, "æĹ": 5927, "android": 5928, "submit": 5929, "otion": 5930, "(@": 5931, ".test": 5932, "ĊĊĊĊĊĊĊĊ": 5933, "];čĊ": 5934, "Ġdirectly": 5935, "Ġ\"%": 5936, "ris": 5937, "elta": 5938, "AIL": 5939, "){čĊ": 5940, "mine": 5941, "(k": 5942, "bon": 5943, "asic": 5944, "pite": 5945, "___": 5946, "Max": 5947, "Ġerrors": 5948, "ĠWhile": 5949, "Ġarguments": 5950, "Ġensure": 5951, "Right": 5952, "-based": 5953, "Web": 5954, "Ġ-=": 5955, "Ġintrodu": 5956, "ĠInst": 5957, "ĠWash": 5958, "ordin": 5959, "join": 5960, "Database": 5961, "Ġgrad": 5962, "Ġusually": 5963, "ITE": 5964, "Props": 5965, "?>Ċ": 5966, "ĠGo": 5967, "@Override": 5968, "REF": 5969, "Ġip": 5970, "ĠAustral": 5971, "Ġist": 5972, "ViewById": 5973, "Ġserious": 5974, "Ġcustomer": 5975, ".prototype": 5976, "odo": 5977, "cor": 5978, "Ġdoor": 5979, "ĠWITHOUT": 5980, "Ġplant": 5981, "Ġbegan": 5982, "Ġdistance": 5983, "()).": 5984, "Ġchance": 5985, "Ġord": 5986, "came": 5987, "pragma": 5988, "Ġprotect": 5989, "ragment": 5990, "ĠNode": 5991, "ening": 5992, "Ñĩ": 5993, "Ġroute": 5994, "ĠSchool": 5995, "hi": 5996, "Ġneighb": 5997, "After": 5998, "licit": 5999, "Ġcontr": 6000, "Ġprimary": 6001, "AA": 6002, ".WriteLine": 6003, "utils": 6004, "Ġbi": 6005, "Red": 6006, ".Linq": 6007, ".object": 6008, "Ġleaders": 6009, "unities": 6010, "Ġgun": 6011, "onth": 6012, "ĠDev": 6013, "FILE": 6014, "Ġcomments": 6015, "_len": 6016, "arrow": 6017, "amount": 6018, "Range": 6019, "sert": 6020, "GridView": 6021, "Ġupdated": 6022, "ĠMo": 6023, "Ġinform": 6024, "ociety": 6025, "ala": 6026, "Access": 6027, "Ġhab": 6028, "Ġcreat": 6029, "_arg": 6030, "ĠJanuary": 6031, "ĠDay": 6032, "\")čĊ": 6033, "uple": 6034, "document": 6035, "gorith": 6036, "menu": 6037, "ĠOver": 6038, "bb": 6039, ".title": 6040, "_out": 6041, "Ġled": 6042, "uri": 6043, "Ġ?></": 6044, "gl": 6045, "Ġbank": 6046, "ayment": 6047, "ĉprintf": 6048, "MD": 6049, "Ġsample": 6050, "Ġhands": 6051, "ĠVersion": 6052, "uario": 6053, "Ġoffers": 6054, "ityEngine": 6055, "Ġshape": 6056, "Ġsleep": 6057, "_point": 6058, "Settings": 6059, "Ġachie": 6060, "Ġsold": 6061, "ota": 6062, ".bind": 6063, "Am": 6064, "Ġsafe": 6065, "Store": 6066, "Ġshared": 6067, "Ġpriv": 6068, "_VAL": 6069, "Ġsens": 6070, "){": 6071, "Ġremember": 6072, "shared": 6073, "element": 6074, "Ġshoot": 6075, "Vert": 6076, "cout": 6077, "Ġenv": 6078, "_label": 6079, "Ġ>Ċ": 6080, "run": 6081, "Ġscene": 6082, "(array": 6083, "device": 6084, "_title": 6085, "agon": 6086, "]čĊ": 6087, "aby": 6088, "Ġbecame": 6089, "boolean": 6090, "Ġpark": 6091, "ĠCode": 6092, "upload": 6093, "riday": 6094, "ĠSeptember": 6095, "Fe": 6096, "Ġsen": 6097, "cing": 6098, "FL": 6099, "Col": 6100, "uts": 6101, "_page": 6102, "inn": 6103, "Ġimplied": 6104, "aling": 6105, "Ġyourself": 6106, ".Count": 6107, "conf": 6108, "Ġaud": 6109, "_init": 6110, ".)": 6111, "Ġwrote": 6112, "NG": 6113, ".Error": 6114, "ä»": 6115, ".for": 6116, "Ġequal": 6117, "ĠRequest": 6118, "Ġserial": 6119, "Ġallows": 6120, "XX": 6121, "Ġmiddle": 6122, "chor": 6123, "Ã¸": 6124, "erval": 6125, ".Column": 6126, "reading": 6127, "Ġescort": 6128, "ĠAugust": 6129, "Ġquickly": 6130, "Ġweap": 6131, "ĠCG": 6132, "ropri": 6133, "ho": 6134, "Ġcop": 6135, "(struct": 6136, "ĠBig": 6137, "Ġvs": 6138, "Ġfrequ": 6139, ".Value": 6140, "Ġactions": 6141, "Ġproper": 6142, "Ġinn": 6143, "Ġobjects": 6144, "Ġmatrix": 6145, "avascript": 6146, "Ġones": 6147, ".group": 6148, "Ġgreen": 6149, "Ġpaint": 6150, "ools": 6151, "ycl": 6152, "encode": 6153, "olt": 6154, "comment": 6155, ".api": 6156, "Dir": 6157, "Ġune": 6158, "izont": 6159, ".position": 6160, "Ġdesigned": 6161, "_val": 6162, "avi": 6163, "iring": 6164, "tab": 6165, "Ġlayer": 6166, "Ġviews": 6167, "Ġreve": 6168, "rael": 6169, "ĠON": 6170, "rics": 6171, "np": 6172, "Ġcore": 6173, "());čĊ": 6174, "Main": 6175, "Ġexpert": 6176, "ĉĉčĊ": 6177, "_en": 6178, "Ġ/>": 6179, "utter": 6180, "IAL": 6181, "ails": 6182, "ĠKing": 6183, "*/ĊĊ": 6184, "ĠMet": 6185, "_end": 6186, "addr": 6187, "ora": 6188, "Ġir": 6189, "Min": 6190, "Ġsurpr": 6191, "Ġrepe": 6192, "Ġdirectory": 6193, "PUT": 6194, "-S": 6195, "Ġelection": 6196, "haps": 6197, ".pre": 6198, "cm": 6199, "Values": 6200, "Ġ\"Ċ": 6201, "column": 6202, "ivil": 6203, "Login": 6204, "inue": 6205, "Ġbeautiful": 6206, "Ġsecret": 6207, "(event": 6208, "Ġchat": 6209, "ums": 6210, "Ġorigin": 6211, "Ġeffects": 6212, "Ġmanagement": 6213, "illa": 6214, "tk": 6215, "Ġsetting": 6216, "ĠCour": 6217, "Ġmassage": 6218, "ĉend": 6219, "Ġhappy": 6220, "Ġfinish": 6221, "Ġcamera": 6222, "ĠVer": 6223, "ĠDemocr": 6224, "ĠHer": 6225, "(Q": 6226, "cons": 6227, "ita": 6228, "Ġ'.": 6229, "{}": 6230, "ĉC": 6231, "Ġstuff": 6232, "Ġ:Ċ": 6233, "ĠAR": 6234, "Task": 6235, "hidden": 6236, "eros": 6237, "IGN": 6238, "atio": 6239, "ĠHealth": 6240, "olute": 6241, "Enter": 6242, "'>": 6243, "ĠTwitter": 6244, "ĠCounty": 6245, "scribe": 6246, "Ġ=>Ċ": 6247, "Ġhy": 6248, "fit": 6249, "Ġmilitary": 6250, "Ġsale": 6251, "required": 6252, "non": 6253, "bootstrap": 6254, "hold": 6255, "rim": 6256, "-old": 6257, "ĠDown": 6258, "Ġmention": 6259, "contact": 6260, "_group": 6261, "oday": 6262, "Ġtown": 6263, "Ġsolution": 6264, "uate": 6265, "elling": 6266, "]->": 6267, "otes": 6268, "ental": 6269, "omen": 6270, "ospital": 6271, "ĠSup": 6272, "_EN": 6273, "Ġslow": 6274, "SESSION": 6275, "Ġblue": 6276, "ago": 6277, "Ġlives": 6278, "Ġ^": 6279, ".un": 6280, "inst": 6281, "enge": 6282, "Ġcustomers": 6283, "Ġcast": 6284, "udget": 6285, "ï¼ģ": 6286, "icens": 6287, "Ġdetermin": 6288, "Selected": 6289, "_pl": 6290, "ueue": 6291, "Ġdark": 6292, "//ĊĊ": 6293, "si": 6294, "thern": 6295, "ĠJapan": 6296, "/w": 6297, "PU": 6298, "ĠEast": 6299, "ovie": 6300, "Ġpackage": 6301, "Ġnor": 6302, "Ġapi": 6303, "bot": 6304, "\"];Ċ": 6305, "_post": 6306, "ulate": 6307, "Ġclub": 6308, "'));Ċ": 6309, "Ġloop": 6310, "PIO": 6311, "ione": 6312, "shot": 6313, "Initial": 6314, "Ġplayed": 6315, "register": 6316, "rought": 6317, "_max": 6318, "acement": 6319, "match": 6320, "raphics": 6321, "AST": 6322, "Ġexisting": 6323, "Ġcomplex": 6324, "DA": 6325, ".Ch": 6326, ".common": 6327, "mo": 6328, "Ġ'../../": 6329, "ito": 6330, "Ġanalysis": 6331, "Ġdeliver": 6332, "idx": 6333, "Ãł": 6334, "ongo": 6335, "ĠEnglish": 6336, "<!--": 6337, "Ġcomputer": 6338, "ENSE": 6339, "Ġpas": 6340, "Ġrais": 6341, "Hash": 6342, "Ġmobile": 6343, "Ġowner": 6344, "FIG": 6345, "thes": 6346, "Ġattr": 6347, "wd": 6348, ".time": 6349, "awn": 6350, "Ġtreatment": 6351, "ĠAc": 6352, ".View": 6353, "impl": 6354, "more": 6355, "pass": 6356, "Ġha": 6357, ".from": 6358, "Ġleading": 6359, "FFFF": 6360, "(error": 6361, ".ui": 6362, "atar": 6363, "aders": 6364, "dates": 6365, "Ġzu": 6366, "Ġflow": 6367, "Target": 6368, "Ġinvolved": 6369, "Ġio": 6370, "parse": 6371, "$_": 6372, "hest": 6373, ".int": 6374, "-item": 6375, "asy": 6376, "Sp": 6377, "Ġshift": 6378, "NT": 6379, "Ġtf": 6380, "_TR": 6381, ".web": 6382, "CS": 6383, "Ġ})": 6384, "Ġeyes": 6385, "_z": 6386, "');čĊ": 6387, "iforn": 6388, "Ġ{@": 6389, "Ġnice": 6390, ".list": 6391, "ĠĠĠĠčĊ": 6392, "Ġfloor": 6393, "Ġredirect": 6394, "ĠUK": 6395, "(['": 6396, "Ġwish": 6397, "Ġcapt": 6398, "legal": 6399, "ĠIO": 6400, "Ġstage": 6401, ".String": 6402, "ĠAfr": 6403, "igen": 6404, "ĠSH": 6405, "Delete": 6406, "ells": 6407, "Ġsolid": 6408, "Ġmeeting": 6409, "Ġworked": 6410, "Ġeditor": 6411, "iny": 6412, "Ð¼": 6413, "_read": 6414, ".Id": 6415, "eff": 6416, "Offset": 6417, "cha": 6418, "USER": 6419, "ĉĉĠĠĠ": 6420, "ipped": 6421, "Ġdict": 6422, "ĠRun": 6423, ".hpp": 6424, "Ġang": 6425, "xml": 6426, "imple": 6427, "Ġmedical": 6428, "_token": 6429, "connect": 6430, "Ġhour": 6431, "Ġcontroller": 6432, "_message": 6433, "UID": 6434, "Gr": 6435, "anded": 6436, "_CH": 6437, "Ġbooks": 6438, "Ġspeak": 6439, "aming": 6440, "Ġmount": 6441, "Record": 6442, "ĉstruct": 6443, ".Web": 6444, "ondon": 6445, "Ġ//Ċ": 6446, "Ġfelt": 6447, ".Auto": 6448, "idge": 6449, "_pos": 6450, "PR": 6451, "Ġmodern": 6452, "Collection": 6453, "_msg": 6454, "CD": 6455, "ĠLo": 6456, "Ġseconds": 6457, "ibly": 6458, ".equals": 6459, "Ġinternational": 6460, "#pragma": 6461, "ooth": 6462, "Writer": 6463, "iate": 6464, "Ġcele": 6465, "ĠBit": 6466, "ivo": 6467, "ivery": 6468, "rd": 6469, "HECK": 6470, "Ġcache": 6471, ".count": 6472, "Ġroll": 6473, ".Read": 6474, "RED": 6475, "Ġsetup": 6476, "izontal": 6477, "models": 6478, "argv": 6479, "Ġconsidered": 6480, "=\"../": 6481, "settings": 6482, "ĠRel": 6483, "Ġgrowth": 6484, "Ġmix": 6485, "ĠWashington": 6486, "Ġplt": 6487, "ĠIM": 6488, "áº": 6489, "Ġturned": 6490, "ĠDateTime": 6491, "ĠWed": 6492, "(url": 6493, "Ġ\"-": 6494, "Ġletter": 6495, "Async": 6496, "ĠOctober": 6497, "_line": 6498, "Ġattention": 6499, "Ġcollect": 6500, "ĠHash": 6501, "Ġimag": 6502, "Tree": 6503, "Ġsituation": 6504, "ette": 6505, "_no": 6506, "IVE": 6507, "Ġvon": 6508, ".target": 6509, "Ġknowledge": 6510, "Ġdrive": 6511, ".post": 6512, "Ġblood": 6513, "Ġcit": 6514, "primary": 6515, "Ġconfiguration": 6516, "tee": 6517, "Ġphoto": 6518, "isode": 6519, "Trace": 6520, "Ġgave": 6521, "Ġshot": 6522, "ĠAir": 6523, "Ġmother": 6524, "price": 6525, "Ġmorning": 6526, ")){Ċ": 6527, "-x": 6528, "Ġtrade": 6529, "Ġdesc": 6530, "Ġ&&Ċ": 6531, "Ġparents": 6532, "Api": 6533, "åĪ": 6534, "ted": 6535, "wer": 6536, "Ġæ": 6537, "Ġsy": 6538, "ĠKe": 6539, "Parser": 6540, "åħ": 6541, "ancy": 6542, "Ġpiece": 6543, "ifornia": 6544, "toString": 6545, "ran": 6546, "iding": 6547, "PTION": 6548, "comes": 6549, "/lic": 6550, ".client": 6551, "El": 6552, "Long": 6553, "Ġprofessional": 6554, "rupt": 6555, "va": 6556, "Ġcompletely": 6557, "Ġpractice": 6558, "Ġselection": 6559, "Rem": 6560, "ini": 6561, "Ġcam": 6562, "REE": 6563, "Ġsites": 6564, "pa": 6565, "ATUS": 6566, "ÑģÑĤ": 6567, "arrant": 6568, "*(": 6569, "_KEY": 6570, "ĠButton": 6571, "ĠFriday": 6572, "sequ": 6573, "Ġreader": 6574, "Ġmessages": 6575, "è¯": 6576, "Ġbuf": 6577, "Ke": 6578, "Ġnov": 6579, "HP": 6580, "Msg": 6581, "align": 6582, "arily": 6583, "Ġ',": 6584, "_with": 6585, "Ġdas": 6586, "Ġheard": 6587, "atomic": 6588, "rial": 6589, ")[": 6590, "Ġdise": 6591, "@end": 6592, "Ġgold": 6593, "Ġfair": 6594, "Ġsales": 6595, ".Button": 6596, "strict": 6597, "save": 6598, "Ġmeasure": 6599, "Ġ\"+": 6600, "ecause": 6601, "ViewController": 6602, "ĠTable": 6603, ".param": 6604, "Ġdecided": 6605, "(((": 6606, "INFO": 6607, "Ġopportunity": 6608, "Te": 6609, "ICENSE": 6610, "ccording": 6611, "ki": 6612, "ĠUN": 6613, "Ġcontain": 6614, "Ġmanager": 6615, "Ġpain": 6616, "ĠFire": 6617, "rome": 6618, "Ġplans": 6619, "Found": 6620, "lay": 6621, "ĠDecember": 6622, "Ġinflu": 6623, "Ãº": 6624, "rench": 6625, "azing": 6626, "brief": 6627, "call": 6628, "wood": 6629, "Ġloaded": 6630, "Ġgrand": 6631, "/f": 6632, "imp": 6633, "_U": 6634, "STR": 6635, "âĢ¢": 6636, "Ġcredit": 6637, ".Color": 6638, "orge": 6639, "QUEST": 6640, "Ġdifference": 6641, "ĠPC": 6642, "wargs": 6643, "Ġpub": 6644, "unday": 6645, "Ġfra": 6646, ".max": 6647, "Ġtried": 6648, "annels": 6649, "send": 6650, "Ġreports": 6651, "Ġadult": 6652, "äº": 6653, "Ġconsist": 6654, "ĠStreet": 6655, "ĠProgram": 6656, "SQL": 6657, "Matrix": 6658, "ouncil": 6659, "-A": 6660, "ĉw": 6661, "Ġwhose": 6662, "Ġrelig": 6663, "ĠSex": 6664, "Ġgives": 6665, "none": 6666, ".message": 6667, "(G": 6668, ".awt": 6669, "-right": 6670, "ĠNovember": 6671, "ellig": 6672, "utive": 6673, "Äĥ": 6674, "overn": 6675, "Ġeasily": 6676, "Ġideas": 6677, "ĠÐ½": 6678, "/css": 6679, "lying": 6680, "elle": 6681, "Can": 6682, "_color": 6683, "Ð¾Ð²": 6684, "Ġpair": 6685, "ngth": 6686, "Ġsplit": 6687, "drop": 6688, "arty": 6689, "ona": 6690, "Ġcapital": 6691, "Ġhear": 6692, "Ġexists": 6693, "ĉlog": 6694, "emo": 6695, "Run": 6696, "oi": 6697, "Ġparser": 6698, "ĠMethod": 6699, "Ġeducation": 6700, "[k": 6701, "Ġlibrary": 6702, ">\";Ċ": 6703, "_UN": 6704, "ĉstd": 6705, "oded": 6706, "Ġcalls": 6707, "here": 6708, "Rel": 6709, "Ġbrand": 6710, "background": 6711, "ga": 6712, "_address": 6713, "_params": 6714, "Category": 6715, "ĠIndia": 6716, "_event": 6717, "Ġing": 6718, "Render": 6719, ".cl": 6720, "umpy": 6721, "Ġpet": 6722, "FC": 6723, "ĠAnt": 6724, "Ext": 6725, "Ġcharge": 6726, "ened": 6727, "grad": 6728, "EO": 6729, "Ġdepend": 6730, "Ġ.ĊĊ": 6731, "frame": 6732, "Ġdf": 6733, "Ġhuge": 6734, "ĠPART": 6735, "eds": 6736, ";;": 6737, "ĠAM": 6738, "Ġbasic": 6739, "ĠLet": 6740, "lich": 6741, "Ġarm": 6742, "Ġstar": 6743, "Ġfederal": 6744, "Work": 6745, "Ġcarry": 6746, "ĠIsrael": 6747, "(obj": 6748, "={{": 6749, "Ġsaved": 6750, "Ġsyn": 6751, "Ġconstant": 6752, "VENT": 6753, "Ġpositive": 6754, "Ġconduct": 6755, "Ġskin": 6756, "Ġearlier": 6757, "Ġlayout": 6758, "ĠIP": 6759, "OUR": 6760, "Ġtim": 6761, "stylesheet": 6762, "_cl": 6763, "ĠCard": 6764, "++){Ċ": 6765, "Ġtemper": 6766, "ĠDavid": 6767, "ĉtry": 6768, ".dart": 6769, "Ġwants": 6770, "Ġpicture": 6771, "Ġvideos": 6772, "ĠComm": 6773, "isions": 6774, "_MAX": 6775, "Mapping": 6776, "-content": 6777, "ĠEar": 6778, "-de": 6779, "Ġprem": 6780, "bruary": 6781, "Ġcomponents": 6782, "Ġthroughout": 6783, "Ġpull": 6784, "Ġpages": 6785, "ente": 6786, "respond": 6787, "Ġgas": 6788, "criptor": 6789, "Ġedge": 6790, "Ġbound": 6791, "ACT": 6792, "******": 6793, "Ġcreating": 6794, "ĠCH": 6795, "Ġnullptr": 6796, "Br": 6797, "+'": 6798, ".co": 6799, ">::": 6800, "Ġlearning": 6801, ".Length": 6802, "_SH": 6803, "Ġpatients": 6804, "AIN": 6805, "Ġkids": 6806, "Ġcomfort": 6807, "Ġshown": 6808, "ugins": 6809, "ĠBack": 6810, "ella": 6811, "_CL": 6812, "Ġlat": 6813, "Ġdispatch": 6814, "Ġclasses": 6815, ".at": 6816, ".begin": 6817, "Ġsuccessful": 6818, "ban": 6819, "Ġobtain": 6820, "ĠSl": 6821, "Ġlack": 6822, "iterator": 6823, "Thread": 6824, "(size": 6825, "Ġnone": 6826, ".has": 6827, "_X": 6828, "sort": 6829, "nap": 6830, "pet": 6831, "bin": 6832, "ĠCanada": 6833, "They": 6834, "Ġdans": 6835, "ĠMat": 6836, "<td": 6837, "Ġhair": 6838, "Ġ'',Ċ": 6839, "Ġcu": 6840, "Ġlaws": 6841, "leted": 6842, "ped": 6843, "Ġpow": 6844, "Ġknew": 6845, "_COM": 6846, "_,": 6847, "ĠMag": 6848, "idents": 6849, "(req": 6850, "Ġ),": 6851, "-center": 6852, "Ġwide": 6853, "ĠAuthor": 6854, "stants": 6855, "Ġjobs": 6856, "Ġmath": 6857, "etimes": 6858, "Boolean": 6859, "Ġscope": 6860, "_is": 6861, "Ġmeas": 6862, "Ġkeys": 6863, "elay": 6864, "Ġexactly": 6865, "'=>'": 6866, "ĠPaul": 6867, "mas": 6868, "ĉprint": 6869, "(len": 6870, "fd": 6871, "Ġ);": 6872, ".Event": 6873, "qli": 6874, "irit": 6875, "ields": 6876, "oman": 6877, "ĠTop": 6878, "Ġvote": 6879, "Ġmask": 6880, "Ġtheme": 6881, "-Ċ": 6882, "Ġprops": 6883, "Ġfine": 6884, "Ġwriter": 6885, "_offset": 6886, "car": 6887, "Ġaltern": 6888, "Ġcopyright": 6889, "Ġdestroy": 6890, "pper": 6891, "Ġgenerate": 6892, "pped": 6893, "âĢĻd": 6894, "ĠĠĠĠĠĠĊ": 6895, "make": 6896, "ĠShow": 6897, "Ġbrowser": 6898, "Ġfavorite": 6899, "Ġcareer": 6900, "Ġhappened": 6901, "(char": 6902, "Ġrecommend": 6903, "Ġliter": 6904, ".filter": 6905, "grade": 6906, "ĠÂ£": 6907, "Phone": 6908, "oms": 6909, "Ġnamed": 6910, "-label": 6911, "ipo": 6912, "ĠOther": 6913, "Ġpanel": 6914, "Ġrock": 6915, "Scale": 6916, "ĉassert": 6917, "Ð´": 6918, "Ġtrust": 6919, "front": 6920, "Ġdemon": 6921, "Ar": 6922, "Net": 6923, "Ġeconomic": 6924, "footer": 6925, "Ġrace": 6926, "(node": 6927, "ĠOption": 6928, "split": 6929, "Ġphysical": 6930, "ifest": 6931, "Ġremoved": 6932, ".http": 6933, ")),Ċ": 6934, "Ġlooked": 6935, "';": 6936, "ding": 6937, "gest": 6938, "aturday": 6939, "/licenses": 6940, "Price": 6941, "Ġdro": 6942, "Ġtowards": 6943, "Ġuns": 6944, "ĠCL": 6945, "ĉstatic": 6946, "Ġrows": 6947, "Ġdefine": 6948, ".replace": 6949, "Ġfather": 6950, "ĠDesign": 6951, "assign": 6952, "mut": 6953, "Device": 6954, "Did": 6955, "'))Ċ": 6956, "ometry": 6957, "ayload": 6958, "Ġhistor": 6959, "ĠParam": 6960, "ĠBoolean": 6961, "Ġnature": 6962, "Ġjs": 6963, "Ġnation": 6964, "ih": 6965, "Ġdiscover": 6966, "sem": 6967, "Handle": 6968, "ĉr": 6969, "ĠTechn": 6970, "Ġwall": 6971, "{$": 6972, "@property": 6973, "Ġ\"../": 6974, "Ġexam": 6975, ".draw": 6976, "opping": 6977, "Ġnearly": 6978, "Ġcool": 6979, "Ġindepend": 6980, "RES": 6981, "Ġhandler": 6982, "ĠMonday": 6983, "Ġsun": 6984, "Styles": 6985, "ously": 6986, "Ġĉ": 6987, "vest": 6988, "Display": 6989, "(y": 6990, "atically": 6991, "Ġpredict": 6992, "ying": 6993, "Ġsometimes": 6994, "\"]Ċ": 6995, "Ġdrink": 6996, "Ġbul": 6997, "ifications": 6998, ".insert": 6999, ".reg": 7000, "Ġtests": 7001, "Alignment": 7002, "Ġalleg": 7003, "Ġattribute": 7004, "ĠNote": 7005, "Ġmyself": 7006, "arts": 7007, "Now": 7008, "Ġinteresting": 7009, "lients": 7010, "Ġpopulation": 7011, "ĠCalifornia": 7012, "\"I": 7013, "å¹": 7014, "Ġgreater": 7015, "uesday": 7016, "Ġthous": 7017, "Ġcosts": 7018, "Ġlaunch": 7019, "\\Http": 7020, "ker": 7021, "band": 7022, "ĠPlay": 7023, "Ġband": 7024, ".shape": 7025, "esome": 7026, "article": 7027, ".rf": 7028, "Ġwer": 7029, "Ã¡s": 7030, "embers": 7031, "usr": 7032, "BA": 7033, "ican": 7034, "ett": 7035, "validate": 7036, "ulti": 7037, "Ġimmediately": 7038, "zer": 7039, "Ġfigure": 7040, "oes": 7041, "eller": 7042, "ircle": 7043, "ĠSign": 7044, ".db": 7045, "Ġrank": 7046, "Bytes": 7047, "Ġprojects": 7048, "_rec": 7049, "ULAR": 7050, "API": 7051, "ĠLine": 7052, "Port": 7053, "Ġpoll": 7054, "Ġgiving": 7055, "idence": 7056, "--Ċ": 7057, "Ġplot": 7058, "icial": 7059, "Ġwarrant": 7060, "ITION": 7061, "ĠDouble": 7062, "Ġbillion": 7063, "gorithm": 7064, "Ġequipment": 7065, "DATE": 7066, "Ġ@\"": 7067, "EE": 7068, "Ġple": 7069, "iation": 7070, "Ġheaders": 7071, "Ġproced": 7072, ".ComponentModel": 7073, "ĠObama": 7074, "Ġpa": 7075, "ĠBest": 7076, "imately": 7077, ".getString": 7078, ".\\": 7079, "mploy": 7080, "Ġraw": 7081, "_block": 7082, "undred": 7083, "\"},Ċ": 7084, ".GroupLayout": 7085, "Ġbrought": 7086, "NSString": 7087, "throw": 7088, "created": 7089, ".New": 7090, "_view": 7091, "CP": 7092, "eps": 7093, "Op": 7094, "Ġgratis": 7095, "Ġ'\"": 7096, "Ġinterview": 7097, "\"\"\"Ċ": 7098, "Ġpartial": 7099, "Ġaria": 7100, "bing": 7101, "Author": 7102, "Book": 7103, "ĠPat": 7104, "uman": 7105, "Users": 7106, "plus": 7107, "ĠDirect": 7108, "venue": 7109, "alpha": 7110, "UCCESS": 7111, "ĠCall": 7112, "Ġ);čĊ": 7113, "imated": 7114, "Ġremain": 7115, "Ġanti": 7116, "ĠLondon": 7117, "Ġsafety": 7118, "POSE": 7119, "oles": 7120, "controller": 7121, "Byte": 7122, "ĠCourt": 7123, "ĠPhil": 7124, "ĠAssoci": 7125, "ena": 7126, "åĲ": 7127, "_STR": 7128, "coin": 7129, "reshold": 7130, "Ġbatch": 7131, "_Click": 7132, "entication": 7133, ">';Ċ": 7134, "enty": 7135, "Ġbeginning": 7136, "Ġzero": 7137, "ĠConvert": 7138, "Ġterr": 7139, "Ġpaid": 7140, "Ġincreased": 7141, "catch": 7142, "-size": 7143, "activity": 7144, "equals": 7145, "Ġqueue": 7146, "Ġ\"'": 7147, "ĠInternational": 7148, "ĠfÃ¼r": 7149, "ursday": 7150, "Ġscient": 7151, "allow": 7152, "axis": 7153, "Ġappropri": 7154, "edge": 7155, "Ġidx": 7156, "Success": 7157, "entifier": 7158, ":\\": 7159, "xis": 7160, "Ġmaximum": 7161, "arks": 7162, "Ġbirth": 7163, "(index": 7164, "Ġmaybe": 7165, ".py": 7166, "files": 7167, "Ġlimited": 7168, "_check": 7169, "look": 7170, "plies": 7171, "Ġmovement": 7172, "'].": 7173, "Ġbroad": 7174, "ĠBE": 7175, "ĠUnityEngine": 7176, ".cpp": 7177, "ĠEvery": 7178, "Admin": 7179, "Ġfans": 7180, "pared": 7181, "ĊĠĠĠĠĊ": 7182, "Ġforeign": 7183, "Ġpan": 7184, "Ġtour": 7185, "ĠOrder": 7186, "Ġmoving": 7187, "Ġauf": 7188, "Call": 7189, "cb": 7190, "ÅŁ": 7191, "ventory": 7192, "ĠSql": 7193, "Ġfully": 7194, "ClickListener": 7195, "WORD": 7196, "Ġannounced": 7197, ")čĊčĊ": 7198, "Ġagreed": 7199, "rie": 7200, "Ġearn": 7201, "_link": 7202, ".array": 7203, "(text": 7204, "Ġmaterials": 7205, ",p": 7206, "ffff": 7207, "vg": 7208, "ĠÂ©": 7209, "Ġunless": 7210, "ajax": 7211, "LOG": 7212, "Ġsexual": 7213, "Ġ\\\"": 7214, "-time": 7215, "Ġcoach": 7216, "Ġsupported": 7217, "Ġphotos": 7218, "iform": 7219, ".Create": 7220, ")]": 7221, "rier": 7222, "Ġdialog": 7223, "aver": 7224, "ige": 7225, ")+": 7226, "_idx": 7227, ":[": 7228, "_min": 7229, "ĠCong": 7230, "Ġpressure": 7231, "Ġteams": 7232, "Sign": 7233, "begin": 7234, "rian": 7235, "NESS": 7236, "LS": 7237, "Ġimprove": 7238, "ĠSunday": 7239, "Ġdefinition": 7240, "iger": 7241, "rollers": 7242, "Ġthinking": 7243, "Template": 7244, "-F": 7245, "Ġemerg": 7246, "plates": 7247, "ĠUSA": 7248, ".setState": 7249, "ĠAlso": 7250, "rev": 7251, "Ġenable": 7252, "ĠCO": 7253, "PECT": 7254, "Ġconcept": 7255, ")-": 7256, "ĠâĢ¢": 7257, "Ġsets": 7258, "Ġmeaning": 7259, "emon": 7260, "ĠCons": 7261, "cmp": 7262, "eder": 7263, "anned": 7264, "icensed": 7265, "ĠSuper": 7266, "Ġdaily": 7267, "Ġmulti": 7268, "_u": 7269, "Ġchalleng": 7270, "_mode": 7271, "ĠPromise": 7272, "Ġstrict": 7273, "jo": 7274, "inton": 7275, "(list": 7276, "Only": 7277, ">{": 7278, "Ġvehicle": 7279, "íķ": 7280, "ĠPlayer": 7281, "ĠDel": 7282, "Ġpool": 7283, ".url": 7284, "nesday": 7285, "();čĊčĊ": 7286, "Ġ\");Ċ": 7287, "Local": 7288, ".\");Ċ": 7289, "Ġorganization": 7290, "render": 7291, "ĠApplication": 7292, "Ġsummer": 7293, "expected": 7294, "NA": 7295, "Ġrap": 7296, "_obj": 7297, "Ġsurface": 7298, "ĠPUR": 7299, "Ġ},ĊĊ": 7300, "Ġvariables": 7301, "(message": 7302, "Ġopin": 7303, ".back": 7304, "Ð°Ð½": 7305, "Ġworkers": 7306, "vm": 7307, "Co": 7308, "ughter": 7309, "Ġmaster": 7310, "Ġ\"\",": 7311, "Ġstories": 7312, ".User": 7313, "Ġcelebr": 7314, "inese": 7315, "BS": 7316, "ĠCommand": 7317, "ashboard": 7318, "Ġog": 7319, "kg": 7320, ".image": 7321, ".style": 7322, "Ġsteps": 7323, "ĠBen": 7324, "(args": 7325, "ĠPerson": 7326, ",y": 7327, "Ġofficials": 7328, "|Ċ": 7329, "Ġskills": 7330, "vc": 7331, "Ġbuilder": 7332, "Ġgar": 7333, "Account": 7334, "ĠAuth": 7335, "çĶ": 7336, "'])Ċ": 7337, "ĠAT": 7338, "nn": 7339, ".Int": 7340, "SSERT": 7341, "Ġeffective": 7342, "LETE": 7343, "Ġtools": 7344, "ARD": 7345, "Ġdigital": 7346, "Double": 7347, "ĠFind": 7348, "RC": 7349, "Ġinline": 7350, "/r": 7351, "ARAM": 7352, "ASK": 7353, "Ġintent": 7354, "aight": 7355, "_addr": 7356, "Ġrequests": 7357, ".first": 7358, "Ġdebug": 7359, "Ġspent": 7360, "()));Ċ": 7361, "ÅĽ": 7362, "Ġprincip": 7363, "Logger": 7364, "cludes": 7365, ".use": 7366, "Ġsurv": 7367, "media": 7368, "ĠFebruary": 7369, "ĠMac": 7370, "Ġmissing": 7371, "Ġwife": 7372, "Ġtalking": 7373, "ĠMake": 7374, "Ġcart": 7375, "Ġlocated": 7376, "Enc": 7377, "-a": 7378, "chron": 7379, "Ġcards": 7380, "Ġguy": 7381, "Ġpers": 7382, "ĠYes": 7383, "atever": 7384, "ĠAng": 7385, "olar": 7386, "ĠEven": 7387, "Ġaccur": 7388, "ĠPower": 7389, "ĠGold": 7390, "clear": 7391, "Process": 7392, "Ġrecords": 7393, "Ġkilled": 7394, ".clear": 7395, "ĠWARRANTIES": 7396, "Ġpurpose": 7397, "panel": 7398, "JECT": 7399, "ÃŃa": 7400, "Ġexerc": 7401, "WS": 7402, "/L": 7403, ".exports": 7404, "Ġ___": 7405, "Ġsin": 7406, "Servlet": 7407, "ĠdÃ©": 7408, ".delete": 7409, "roke": 7410, "Sl": 7411, "ugh": 7412, "ears": 7413, "Ġpointer": 7414, "Ġhop": 7415, "allery": 7416, "Ġobs": 7417, "covery": 7418, "ĉchar": 7419, "ĉĉĉĉĉĉĉĉĉĉ": 7420, "ĉdef": 7421, "ocity": 7422, "itchen": 7423, "ulations": 7424, "ĠFIT": 7425, "Ġ).": 7426, "straints": 7427, "vention": 7428, "Ġrequires": 7429, "ĠOper": 7430, "ME": 7431, "OUNT": 7432, "allet": 7433, "Ġnorm": 7434, "IRE": 7435, "exas": 7436, "Ġprograms": 7437, "Ġweak": 7438, "'.$": 7439, "uing": 7440, "ĉĠĠĠĠĠĠĠ": 7441, "Ġmil": 7442, "Ġfirm": 7443, "initely": 7444, "_VALUE": 7445, "apse": 7446, "atisf": 7447, "Ġdemand": 7448, "_mod": 7449, "Ġdescribed": 7450, "Ġplaces": 7451, "VID": 7452, "Ġalone": 7453, "Ġexport": 7454, "Ġvec": 7455, "ĠMax": 7456, "Ġactivities": 7457, "ictures": 7458, "gener": 7459, "Ġma": 7460, "Ĥ¬": 7461, "Ġexpression": 7462, "Callback": 7463, "_content": 7464, "ĠMost": 7465, "Ġtesting": 7466, "EC": 7467, "CHANT": 7468, "Ġadjust": 7469, ".Threading": 7470, "(ctx": 7471, "Ġagree": 7472, "ighest": 7473, "Ġui": 7474, "ĠLaw": 7475, ".Y": 7476, "><?": 7477, "Ġpod": 7478, "-lg": 7479, "âĢĿĊĊ": 7480, "Ġdescribe": 7481, "ĠEuropean": 7482, "-sh": 7483, "ĠPURPOSE": 7484, "ORY": 7485, "Ġconvers": 7486, "ĠIlluminate": 7487, "ĠAv": 7488, "(ch": 7489, "?\"": 7490, "chen": 7491, "ima": 7492, "Document": 7493, "Ġoperations": 7494, "win": 7495, "ĉfunction": 7496, ".Image": 7497, "Ġscen": 7498, "/h": 7499, "ĠSC": 7500, "Ġexplo": 7501, ":%": 7502, "/**čĊ": 7503, "NAME": 7504, "æĪ": 7505, "(var": 7506, "Ġdirector": 7507, "ONG": 7508, "Ġyield": 7509, "Ġfeet": 7510, "ĠSearch": 7511, "ĠIl": 7512, "Ġrestaur": 7513, "duc": 7514, "Ġinteger": 7515, "Ġ'';Ċ": 7516, "Ġhighly": 7517, "checked": 7518, "ĠPARTIC": 7519, "ERCHANT": 7520, "ï¼ī": 7521, "Ġoptim": 7522, "Queue": 7523, "ĠLI": 7524, "itation": 7525, "Ġtransport": 7526, "ission": 7527, "fill": 7528, "usion": 7529, "ĉbool": 7530, "-th": 7531, "upt": 7532, "Ġessential": 7533, "anted": 7534, "Ġbenefits": 7535, "ĉS": 7536, "';čĊ": 7537, "iki": 7538, "Ġgirls": 7539, "iced": 7540, "buffer": 7541, "]+": 7542, "Ġsocket": 7543, "Ġprices": 7544, "ĠFre": 7545, "Ġsat": 7546, "Ġwood": 7547, "MenuItem": 7548, "ARG": 7549, "ĠAdmin": 7550, "OWN": 7551, "dk": 7552, "Ġreset": 7553, "Ġforms": 7554, "ĠÐ¸": 7555, "æĸ": 7556, "ĠTuesday": 7557, "ĠInitialized": 7558, "_train": 7559, "orary": 7560, "ategor": 7561, "Ġdt": 7562, "Total": 7563, "construct": 7564, "ilies": 7565, "Ġguys": 7566, "ÐµÑĢ": 7567, "Ġinstruction": 7568, "yled": 7569, "Ġinternet": 7570, "etadata": 7571, "ady": 7572, "faces": 7573, "jection": 7574, "ĠJack": 7575, "Ġrect": 7576, "[-": 7577, "ĠLeg": 7578, "Ġdevices": 7579, "OC": 7580, "Ġ*čĊ": 7581, "oration": 7582, "ertain": 7583, "Ġguard": 7584, "ostream": 7585, "Ġenum": 7586, ".layout": 7587, "Ġ\";Ċ": 7588, "voke": 7589, "ĠOk": 7590, "Home": 7591, "(tr": 7592, "ETH": 7593, "Ġdelay": 7594, "Ġpurchase": 7595, "dc": 7596, "Ġaren": 7597, "_once": 7598, "ĉĉĉĉĊ": 7599, "ror": 7600, "draw": 7601, ".run": 7602, "(model": 7603, "Timeout": 7604, "lik": 7605, "ĠArg": 7606, ".en": 7607, "Ġfish": 7608, "cpy": 7609, "_fe": 7610, "ERCHANTABILITY": 7611, "(X": 7612, "_output": 7613, "??": 7614, "Ġjo": 7615, "andard": 7616, "Ġdoll": 7617, "errors": 7618, "_base": 7619, "ĠPARTICULAR": 7620, "Ġleader": 7621, "Ġcompar": 7622, "Ġdoub": 7623, "ĠVis": 7624, "StackTrace": 7625, "-C": 7626, "ĠStud": 7627, "stitute": 7628, "More": 7629, "ĠDescription": 7630, "WARE": 7631, "ads": 7632, "ĠÐº": 7633, "bind": 7634, "=self": 7635, "employ": 7636, "[n": 7637, ".all": 7638, "-B": 7639, "&&": 7640, "alm": 7641, "Ġculture": 7642, "house": 7643, "Ġsuffer": 7644, "Ġ'%": 7645, "Ġstraight": 7646, "ĠStar": 7647, "udo": 7648, "Ġded": 7649, "ĠCOM": 7650, "Ġconfirm": 7651, "ĠGood": 7652, ".sc": 7653, "________________": 7654, "DR": 7655, "Configuration": 7656, "DateTime": 7657, "Ġadvert": 7658, "Ġcouldn": 7659, "async": 7660, "stack": 7661, "')čĊ": 7662, "Kit": 7663, "Ġhous": 7664, "Ġmechan": 7665, "rate": 7666, "Ġaudio": 7667, "ĉcout": 7668, "cores": 7669, "Ġspot": 7670, "Ġincreasing": 7671, "Ġ##": 7672, ")))": 7673, "points": 7674, "Ġcompared": 7675, "lig": 7676, "Ġbehavior": 7677, "ĠBY": 7678, "ĠAtt": 7679, "craft": 7680, "headers": 7681, "ete": 7682, "endregion": 7683, "Ġdetail": 7684, "ULE": 7685, "ĠCommon": 7686, "ĉprotected": 7687, "ston": 7688, "ĠFITNESS": 7689, "Ġfresh": 7690, "\">ĊĊ": 7691, ".example": 7692, "berg": 7693, "Ġmoved": 7694, "ĉe": 7695, "ĠSaturday": 7696, "Ġpayload": 7697, "Äĩ": 7698, "):ĊĊ": 7699, "Ġbey": 7700, "urer": 7701, "<script": 7702, "Ġsymbol": 7703, "Ġassum": 7704, "Ġpul": 7705, "Effect": 7706, "Ġhundred": 7707, "Tool": 7708, "aked": 7709, "connection": 7710, "Ġvoice": 7711, "Ġpd": 7712, "Ġtransaction": 7713, "Ġlinks": 7714, "Err": 7715, "ĠIndian": 7716, "TC": 7717, "atalog": 7718, "ni": 7719, "sign": 7720, "<<\"": 7721, "ji": 7722, "ya": 7723, "Ġdemonstr": 7724, "ulated": 7725, ".St": 7726, "Ġinstit": 7727, "Ġboost": 7728, "Ġcells": 7729, "olic": 7730, ".Pro": 7731, ":</": 7732, "EventListener": 7733, "ifying": 7734, "ĠDi": 7735, "orrow": 7736, ".execute": 7737, "Ġcollege": 7738, "Your": 7739, "Ġlargest": 7740, ".dis": 7741, "Ġqui": 7742, "Ġindividuals": 7743, "_buffer": 7744, "Ġng": 7745, "SA": 7746, "ĠControl": 7747, "Ġsing": 7748, "Ġsuit": 7749, "ĠĠĠĠĉ": 7750, "SG": 7751, "Ġjump": 7752, "Ġsmart": 7753, "oma": 7754, "ĠExp": 7755, "Ġ'-": 7756, "Ġassist": 7757, "Ġsuccessfully": 7758, "sys": 7759, "ĠCre": 7760, "_ref": 7761, "ĠThursday": 7762, "Ġbur": 7763, "ĠÐ´": 7764, "Ġbeyond": 7765, "Ġnodes": 7766, "Details": 7767, "inct": 7768, "ĠJames": 7769, "Ġaffect": 7770, "exception": 7771, "Ġtypeof": 7772, "(čĊ": 7773, "-se": 7774, "Ġfetch": 7775, "`,": 7776, "Ġcrusher": 7777, "}.": 7778, "ĠBO": 7779, "Show": 7780, "Ġrates": 7781, "Ġbon": 7782, "-icon": 7783, "ĠMedia": 7784, "RESS": 7785, "ĠValid": 7786, "Ð¾Ð»": 7787, "Ġfuck": 7788, "acks": 7789, "Ġstudies": 7790, "Me": 7791, "Ġowners": 7792, "}else": 7793, "Ġgrowing": 7794, "Variable": 7795, "ĠBel": 7796, ".random": 7797, "vement": 7798, "onym": 7799, "(F": 7800, "ĠFALSE": 7801, "Ġtorch": 7802, "(row": 7803, "igo": 7804, "structure": 7805, "Ġcertainly": 7806, "Dep": 7807, "ĠGreen": 7808, "question": 7809, "Ġadding": 7810, "ĠDevelop": 7811, "_def": 7812, "Ġmach": 7813, "=%": 7814, "ĉĉĠ": 7815, "conds": 7816, "Project": 7817, "Ġreject": 7818, "ĠÎ": 7819, "Ġpoor": 7820, "Ġaware": 7821, "ĠBuild": 7822, "ĠBritish": 7823, "ĠNE": 7824, "Ġnumer": 7825, "rees": 7826, "claim": 7827, "Ġmock": 7828, "Ġom": 7829, "Ġscre": 7830, "OLD": 7831, ".pl": 7832, "eler": 7833, "Ġcorrespond": 7834, "_HE": 7835, "Ġbinary": 7836, "_order": 7837, "ĠSQL": 7838, "Ġadvant": 7839, "Ġprev": 7840, ".[": 7841, ".assertEqual": 7842, "plier": 7843, "arp": 7844, "Ġclosed": 7845, "Ġencour": 7846, "ĠQString": 7847, "aud": 7848, "Ġdeveloped": 7849, "Ġpermission": 7850, ".debug": 7851, "operator": 7852, "Ġ'Ċ": 7853, "Ġsym": 7854, "atively": 7855, "Ã©e": 7856, "-color": 7857, "ĠGET": 7858, "ky": 7859, "Ġalthough": 7860, "_request": 7861, "_element": 7862, "................": 7863, "_DATA": 7864, "Ġamazing": 7865, "Ġsb": 7866, "ĠDefault": 7867, "Events": 7868, "Ġfailure": 7869, "acle": 7870, "Properties": 7871, "Ġdream": 7872, "Ġdistr": 7873, "Ġau": 7874, "Ġgenerated": 7875, "æķ": 7876, "ĠTeam": 7877, "USE": 7878, "Ġincome": 7879, "Ġeye": 7880, "_not": 7881, "\"],": 7882, "_form": 7883, "Support": 7884, "orders": 7885, ".Print": 7886, "ville": 7887, "ĠWednesday": 7888, "olver": 7889, "Ġoppos": 7890, "isation": 7891, "ola": 7892, "Close": 7893, "<p": 7894, "_width": 7895, "Invalid": 7896, "xb": 7897, "Ġstrugg": 7898, "_action": 7899, "Ġtxt": 7900, "ĠPath": 7901, "alar": 7902, "ĠMERCHANTABILITY": 7903, "service": 7904, "ĠMichael": 7905, "ableView": 7906, "Debug": 7907, "okes": 7908, "She": 7909, "Ġguess": 7910, "ĠJava": 7911, "_PATH": 7912, "Ġparticularly": 7913, "ĠII": 7914, "Ġdomain": 7915, "å¹´": 7916, "Ġreduce": 7917, "-left": 7918, "real": 7919, "Ġappears": 7920, "Ġcomo": 7921, "ĠUnit": 7922, "ĠGovern": 7923, "ali": 7924, "allel": 7925, "ĠJew": 7926, "_I": 7927, "Ġcos": 7928, ".color": 7929, "ĠGlobal": 7930, "Ġtele": 7931, "ben": 7932, "_trans": 7933, "Ġreasons": 7934, "Ġemb": 7935, "ensity": 7936, "lines": 7937, "omin": 7938, "Screen": 7939, "Ð°ÑĤ": 7940, "pects": 7941, "clip": 7942, "foo": 7943, "rent": 7944, "Ġaf": 7945, "Ġdanger": 7946, "iling": 7947, "Names": 7948, "Our": 7949, "Ġdistribution": 7950, "While": 7951, "SL": 7952, "Write": 7953, "Ġgoto": 7954, "Ġcolors": 7955, "Ġpowerful": 7956, "kin": 7957, "Ġdepth": 7958, "ercial": 7959, "ĠCongress": 7960, "ĠMarket": 7961, "Db": 7962, "under": 7963, "ĠLast": 7964, "ÃŁ": 7965, "greg": 7966, "Ġposts": 7967, "_URL": 7968, "otos": 7969, "Don": 7970, "Ġmicro": 7971, "Ġarrest": 7972, "Ð¿": 7973, "Ġ(@": 7974, "ĠHot": 7975, "ĠIndex": 7976, ";&": 7977, "#!": 7978, "ĠNor": 7979, "ĠCap": 7980, "-(": 7981, "Ġinterested": 7982, "pear": 7983, "Ġrent": 7984, "Ġalbum": 7985, "olicy": 7986, ".lang": 7987, ".trans": 7988, ".format": 7989, "Ġ{čĊčĊ": 7990, "phere": 7991, "Ġaxis": 7992, "ĠBusiness": 7993, "ersistence": 7994, "urr": 7995, "Ġminimum": 7996, "endor": 7997, "ĠSD": 7998, "ĠInternet": 7999, "å¤": 8000, "Exp": 8001, "iverse": 8002, "MM": 8003, "Ġobvious": 8004, "Ġbasis": 8005, "Ġscience": 8006, "Ġbudget": 8007, "izations": 8008, "PA": 8009, "Ġflags": 8010, "pret": 8011, "LOCK": 8012, "Ġvariety": 8013, "Ġtruth": 8014, "dt": 8015, "Ġgone": 8016, "Ġbattle": 8017, "<std": 8018, "ĠSil": 8019, "rf": 8020, "uda": 8021, "Ġerot": 8022, "ĠCam": 8023, "Ġstation": 8024, "Ġ'</": 8025, "cheme": 8026, "ĠSun": 8027, "Ġfinished": 8028, "Ġshop": 8029, "ĠKore": 8030, "Ġeight": 8031, "_REG": 8032, "ND": 8033, ">,": 8034, "\"><?": 8035, "(num": 8036, "ĉinline": 8037, "Transaction": 8038, ".On": 8039, "Ġmail": 8040, "rey": 8041, "results": 8042, "Ġnav": 8043, "IMIT": 8044, "_ids": 8045, "Make": 8046, "åĬ": 8047, "Modal": 8048, "ĠLOG": 8049, "ĠSur": 8050, "Ġinstanceof": 8051, "Ġoverall": 8052, "ĠInformation": 8053, "Ġconstruction": 8054, "_FILE": 8055, "but": 8056, "Ġmedic": 8057, "Ġduration": 8058, "itness": 8059, "agent": 8060, "AV": 8061, "Ġseven": 8062, "olf": 8063, "Ġ}}Ċ": 8064, "\"],Ċ": 8065, "Ġcalling": 8066, "Ġans": 8067, "throws": 8068, "orizontal": 8069, "ĠuseState": 8070, ".fl": 8071, "ĠStatus": 8072, "ĠOnline": 8073, "RR": 8074, "ĠRich": 8075, "ĠHill": 8076, "Ġbrain": 8077, "Ġfollowed": 8078, "emic": 8079, "Ġslight": 8080, "Ġinsurance": 8081, ".Array": 8082, "Ġabstract": 8083, "ĠSum": 8084, "redirect": 8085, "owner": 8086, "(msg": 8087, "ĠClinton": 8088, "Non": 8089, "ĉex": 8090, "Ġvolume": 8091, "ĠEventArgs": 8092, "-L": 8093, "ĠDim": 8094, "ĠMart": 8095, "Ġcursor": 8096, "Ġimplementation": 8097, "urred": 8098, "Ġlarger": 8099, ");ĊĊĊ": 8100, "'+": 8101, ".transform": 8102, "Ġupload": 8103, "Draw": 8104, "nel": 8105, "ĉfloat": 8106, "qrt": 8107, "ĠNetwork": 8108, "Ġtit": 8109, "Axis": 8110, ".android": 8111, "Ġcompleted": 8112, "Ġmur": 8113, "Ġcolumns": 8114, "xc": 8115, "Ġsupply": 8116, "iminal": 8117, "Ġspr": 8118, "Ġunits": 8119, "(u": 8120, "mi": 8121, "replace": 8122, "[key": 8123, "à¹": 8124, "antic": 8125, "Ġpayment": 8126, ",B": 8127, "ĠApple": 8128, "gin": 8129, "Required": 8130, "#+": 8131, "lands": 8132, "Ġsqu": 8133, "Ġfactor": 8134, "dec": 8135, "Ġstrength": 8136, "Ġboy": 8137, "Ġbalance": 8138, "Ġsources": 8139, "screen": 8140, "-top": 8141, "ĠAmazon": 8142, "Ġhidden": 8143, "ÐµÑĤ": 8144, "_client": 8145, "Ġeat": 8146, ".display": 8147, "ĠÂ»": 8148, "Ġtrigger": 8149, "anager": 8150, "Ġtro": 8151, "Ġclaims": 8152, "ford": 8153, "ĠCompany": 8154, "Ġgift": 8155, ",:": 8156, "_app": 8157, "handle": 8158, "Ġproduce": 8159, "/lib": 8160, "Ġ-*": 8161, "ĉset": 8162, "'];": 8163, "arc": 8164, "ander": 8165, "ĠEngine": 8166, "Ġattributes": 8167, "task": 8168, "<=": 8169, "(N": 8170, "Ġwarm": 8171, "which": 8172, "ĠFore": 8173, "agnost": 8174, "mys": 8175, "Ġtal": 8176, "ĠSal": 8177, "gi": 8178, "ĠPrint": 8179, "ĠTRUE": 8180, "ĠÐ¾": 8181, ".UI": 8182, "Ġflash": 8183, "roperty": 8184, ".location": 8185, "ĠMill": 8186, "bi": 8187, "contr": 8188, ".request": 8189, "ĠSam": 8190, "Ġnegative": 8191, "kit": 8192, "Ġsett": 8193, ".printStackTrace": 8194, "abe": 8195, "ĉi": 8196, "Ġburn": 8197, "Ġsociety": 8198, "Cache": 8199, "ĠSecurity": 8200, ".models": 8201, "ĠWARRANTY": 8202, "_up": 8203, "ceive": 8204, "Ġclients": 8205, ".Tr": 8206, "Ġproviding": 8207, "Ġrout": 8208, "material": 8209, "Ġ||Ċ": 8210, "ĠSer": 8211, "ĠOffice": 8212, "FTWARE": 8213, "Ġ'$": 8214, "Ġfoc": 8215, "Ġexcell": 8216, "Ġcat": 8217, "normal": 8218, "Ġdetermine": 8219, "ĉuint": 8220, "Pane": 8221, "Ġemployees": 8222, "ĠTexas": 8223, "Ġtraff": 8224, "ĠReport": 8225, "anta": 8226, "ĠBox": 8227, "Ġdjango": 8228, "Ġpartner": 8229, "EB": 8230, "LINE": 8231, "Ġfeeling": 8232, "Ġcivil": 8233, "(float": 8234, "Sql": 8235, "Ġwouldn": 8236, ".init": 8237, ".left": 8238, "-v": 8239, "_level": 8240, "'}": 8241, "AF": 8242, "Ġloading": 8243, "ĠOnly": 8244, "Ġcookies": 8245, "ĠGl": 8246, "CO": 8247, "Ġstrategy": 8248, "('./": 8249, "Ġship": 8250, "poses": 8251, "Ġsignal": 8252, "Ġalpha": 8253, ".pop": 8254, "Radius": 8255, "Ġreplace": 8256, "_DIR": 8257, "counter": 8258, "bservable": 8259, "ela": 8260, "Weight": 8261, "hash": 8262, "bose": 8263, "fx": 8264, "ĠEmail": 8265, "Ġrefer": 8266, "localhost": 8267, "_RO": 8268, "iques": 8269, "Step": 8270, "Ġahead": 8271, "(View": 8272, "ĠServices": 8273, "ĠJson": 8274, "essor": 8275, "Ġpun": 8276, "Ġappropriate": 8277, "akers": 8278, "osen": 8279, "posing": 8280, "Ġagent": 8281, "fc": 8282, "Ġtransfer": 8283, "Ġinvalid": 8284, "ĠResearch": 8285, "Vertex": 8286, "Ġgay": 8287, "Ġjournal": 8288, "[x": 8289, "Ġ\"\",Ċ": 8290, "ĠWell": 8291, ".Tasks": 8292, "Spec": 8293, "Ġol": 8294, "Ġspend": 8295, "ĠAustralia": 8296, "Match": 8297, ".junit": 8298, "ĠMAX": 8299, "izable": 8300, "clusive": 8301, "_valid": 8302, "Ġquarter": 8303, "yan": 8304, "ĠEdit": 8305, "arden": 8306, "=new": 8307, "Ġfrag": 8308, "Bit": 8309, "zi": 8310, "aine": 8311, "udd": 8312, ".Object": 8313, "debug": 8314, "Ġcash": 8315, "_IM": 8316, "Ġeen": 8317, "Ġcommercial": 8318, "ĠVideo": 8319, "loader": 8320, "Ġfixed": 8321, "Ġapplications": 8322, "Ġ_,": 8323, "ĠRussia": 8324, "itect": 8325, "_(": 8326, "ĠBlock": 8327, "Ġsan": 8328, "ĠTom": 8329, "Ġperhaps": 8330, "Ġsig": 8331, "levant": 8332, "Ġcorpor": 8333, "ataset": 8334, "ronic": 8335, "xe": 8336, "Ġeth": 8337, "Some": 8338, "pop": 8339, "_OK": 8340, "Ġtend": 8341, ".Res": 8342, "_and": 8343, "Ġreviews": 8344, "Ġwild": 8345, "Ġdegree": 8346, ".O": 8347, ".objects": 8348, "_args": 8349, "nil": 8350, "Ġdisabled": 8351, "Parent": 8352, "Ġnotes": 8353, "Ġ\"\"Ċ": 8354, "(state": 8355, "istrict": 8356, "Ġlogging": 8357, ".IO": 8358, "ĠMal": 8359, "DM": 8360, "Ġxml": 8361, "ĠRobert": 8362, "elen": 8363, "layout": 8364, "fol": 8365, "']))": 8366, ",b": 8367, "ĠJer": 8368, "filename": 8369, "Ġfan": 8370, "ĠCustom": 8371, "=\"\"": 8372, "ĠDie": 8373, "Bundle": 8374, ".utils": 8375, "Ġtrip": 8376, "MB": 8377, "Ġsoft": 8378, "_MODE": 8379, "Ġapplicable": 8380, "Ġupper": 8381, "ERVER": 8382, "_al": 8383, "_LOG": 8384, "Here": 8385, "wp": 8386, "ĠServer": 8387, "ĠClient": 8388, "Ġchem": 8389, "Scroll": 8390, "Ġhighest": 8391, "ĠSelect": 8392, "Ġ\"@": 8393, "ĠWhy": 8394, "Sec": 8395, "heel": 8396, "Operation": 8397, "Ġconnected": 8398, "irmed": 8399, "Ġcitiz": 8400, "ĠChe": 8401, "Ġforces": 8402, "Ġwww": 8403, "Root": 8404, "ANCE": 8405, "Many": 8406, "icip": 8407, "rgan": 8408, "ĠTor": 8409, "ĠPress": 8410, "ĠMor": 8411, "-line": 8412, "uled": 8413, ">\\": 8414, "Ġthus": 8415, "ĠRegister": 8416, "hol": 8417, "ĠChinese": 8418, "Ġposted": 8419, "Ġmagn": 8420, "abilities": 8421, "Ġdisease": 8422, "Ġremains": 8423, "ĠProf": 8424, "-form": 8425, "Ġcin": 8426, "organ": 8427, "icate": 8428, "Ġstress": 8429, "]*": 8430, "_context": 8431, "orry": 8432, "Ġdied": 8433, "mat": 8434, "Ġstarts": 8435, ".Message": 8436, "Ġruns": 8437, "Ġguide": 8438, "Ġwarranty": 8439, "entials": 8440, "dict": 8441, "ĠSize": 8442, "uler": 8443, "Ġresponsible": 8444, "_SET": 8445, "Ġcontaining": 8446, "ĠPrice": 8447, "||": 8448, "FS": 8449, "Ġemp": 8450, "_button": 8451, "(uint": 8452, "Ġsuff": 8453, "pth": 8454, "Ġdefinitely": 8455, "pute": 8456, "Ġmarketing": 8457, "ĠWH": 8458, "ĠSie": 8459, "+=": 8460, "OLOR": 8461, "Ġconsult": 8462, "Ġsigned": 8463, "Ġsequence": 8464, "lee": 8465, "Ġrequirements": 8466, "hy": 8467, "Express": 8468, "MT": 8469, "sey": 8470, "Ġult": 8471, "å®": 8472, "elligence": 8473, "Ġanaly": 8474, "Ġdress": 8475, "engine": 8476, "ĠGreat": 8477, "ĠAndroid": 8478, "ĠAlex": 8479, "mode": 8480, "Dictionary": 8481, ".Date": 8482, "ä½": 8483, "VICE": 8484, "Ġfamilies": 8485, "ĠRussian": 8486, "ĠTimes": 8487, ".call": 8488, "$(": 8489, "Profile": 8490, "Ġfolder": 8491, "ches": 8492, "Ġlegis": 8493, "_row": 8494, "unes": 8495, "ÙĦ": 8496, "Ġ}).": 8497, "Assert": 8498, "agen": 8499, "ĠHand": 8500, "Iter": 8501, "Ġbiggest": 8502, "oreach": 8503, "Ġpolic": 8504, "Ġpermissions": 8505, "Ġshowed": 8506, "ĠElement": 8507, "Ġtopic": 8508, "âĢĶâĢĶ": 8509, "road": 8510, "ĠBank": 8511, "record": 8512, "Ġpartners": 8513, "ĠRef": 8514, "essions": 8515, "Ġassess": 8516, "UST": 8517, "ĠParty": 8518, "produ": 8519, "LC": 8520, "Ġul": 8521, ".form": 8522, "hide": 8523, "copy": 8524, "UTF": 8525, "ĠSOFTWARE": 8526, "čĊčĊčĊ": 8527, "ĠLin": 8528, "una": 8529, "ugar": 8530, "Ġadministration": 8531, "Ġopening": 8532, "Ġscan": 8533, "Ġcontinued": 8534, "component": 8535, ".sp": 8536, "Ġhappens": 8537, "ummy": 8538, "ĠPR": 8539, ".File": 8540, "ĠDownload": 8541, "Loading": 8542, "di": 8543, "Ġwaiting": 8544, "_ADD": 8545, "Tab": 8546, ".querySelector": 8547, "Ġeconomy": 8548, "ĠFrench": 8549, "txt": 8550, "Ġfant": 8551, "_;Ċ": 8552, "Holder": 8553, "SH": 8554, "Ġnumpy": 8555, "Ġstreet": 8556, "Ġmale": 8557, "\\Model": 8558, "anging": 8559, "ĠBill": 8560, "Ġpreviously": 8561, "BI": 8562, "ĠSecret": 8563, "Ġmist": 8564, "ĠField": 8565, "ups": 8566, "ĠProcess": 8567, "Ġkept": 8568, "ĠOT": 8569, "Ġtraditional": 8570, ".i": 8571, "amin": 8572, "Ġhelps": 8573, "Any": 8574, "origin": 8575, "ilters": 8576, "ju": 8577, "desc": 8578, "ĠAccount": 8579, "Ġ)čĊ": 8580, "ktop": 8581, "olly": 8582, "Ġfs": 8583, "Ġê": 8584, "Ġut": 8585, "Ġcentral": 8586, "(test": 8587, ".An": 8588, "Ġsatisf": 8589, "GR": 8590, "ĠFull": 8591, "Ġheat": 8592, "iber": 8593, "Ġonto": 8594, "mos": 8595, "Schema": 8596, "Ġfactory": 8597, "\".$": 8598, "aws": 8599, "Statement": 8600, "(target": 8601, "ĉnew": 8602, ".be": 8603, "Ġguest": 8604, "Ġmal": 8605, "ARY": 8606, "Ġreached": 8607, "Ġmouse": 8608, "Ġchallenge": 8609, "ĉdouble": 8610, "ĠTem": 8611, "Ġterror": 8612, "Ġextract": 8613, "_TO": 8614, "Ġseparate": 8615, "Ġmir": 8616, "help": 8617, "Ġcapacity": 8618, "ĠProperty": 8619, "kan": 8620, "_create": 8621, "ĠLight": 8622, ".parent": 8623, "Ġunderstanding": 8624, "Ġeasier": 8625, "Ġ|=": 8626, "Ġenh": 8627, "Ġfat": 8628, "Ġprotest": 8629, "amm": 8630, "_AT": 8631, "-of": 8632, "ils": 8633, "ĠOh": 8634, "Ġpsych": 8635, "Ġ$.": 8636, "inds": 8637, "Ġrelative": 8638, "shop": 8639, "short": 8640, "ĠSand": 8641, "uestion": 8642, "Ġfear": 8643, "/ĊĊ": 8644, ".context": 8645, "Ġschools": 8646, "Ġserve": 8647, "zone": 8648, "_db": 8649, "Ġmajority": 8650, "example": 8651, "Ġlang": 8652, "ĉĠĠ": 8653, "Register": 8654, "endo": 8655, "Ġprocessing": 8656, "_template": 8657, "-user": 8658, "Ġeg": 8659, "COM": 8660, "ĠBlue": 8661, "iro": 8662, "Ġremote": 8663, "ĠIT": 8664, "#!/": 8665, "Ġredistrib": 8666, "raz": 8667, "ĠSince": 8668, "ĠTur": 8669, "Background": 8670, "===": 8671, "Ġreflect": 8672, "Ġpros": 8673, "cmd": 8674, "Ġwhom": 8675, "Compat": 8676, "ĠAre": 8677, "Identifier": 8678, "ĠThom": 8679, "_port": 8680, "gu": 8681, "Ġmonitor": 8682, "rm": 8683, "Ġpatient": 8684, "verter": 8685, "Ġgain": 8686, "-ui": 8687, "Inst": 8688, "Ġdies": 8689, "Area": 8690, "_filter": 8691, "Ġgrat": 8692, "Ġreality": 8693, "ordinate": 8694, "olved": 8695, "Contact": 8696, "Ġcompliance": 8697, "_or": 8698, "ĠVar": 8699, "dl": 8700, "Ġappend": 8701, "GER": 8702, "(max": 8703, ".render": 8704, "Ġdynamic": 8705, "ordinates": 8706, "_options": 8707, "_column": 8708, "Ġbatter": 8709, "space": 8710, "La": 8711, "ĠSource": 8712, "/bin": 8713, "Ġdos": 8714, "ĠBoard": 8715, "ĠThread": 8716, "ĠAL": 8717, "(config": 8718, "ĠMer": 8719, "Ġmiles": 8720, "_header": 8721, "ETHOD": 8722, "izz": 8723, "Ġbenefit": 8724, "Ġintegr": 8725, "(current": 8726, "ulo": 8727, ".default": 8728, "ĠDiv": 8729, "Ġton": 8730, "oth": 8731, "ervation": 8732, "edom": 8733, "Ġbaby": 8734, "ceived": 8735, ".top": 8736, "riority": 8737, "ĠLocal": 8738, "riage": 8739, "Ġattacks": 8740, "Ġhospital": 8741, "Ġfemale": 8742, "ĠLogin": 8743, "ĠFlor": 8744, "Ġchain": 8745, "ashion": 8746, "Texture": 8747, "Save": 8748, "Ġfarm": 8749, ".contains": 8750, ".Test": 8751, "Ġknows": 8752, "Ġgenerally": 8753, "ipeline": 8754, "Ġmeant": 8755, "encia": 8756, "Ġnicht": 8757, "Ġcontents": 8758, "PM": 8759, "chedule": 8760, "(line": 8761, "CG": 8762, "job": 8763, "ĠReal": 8764, "uer": 8765, "firm": 8766, "ĠØ": 8767, "etro": 8768, "\"`Ċ": 8769, "Ġspeech": 8770, "Ġthr": 8771, "foreach": 8772, "Ġwarn": 8773, "ĉl": 8774, "Ġheavy": 8775, "<li": 8776, "Ne": 8777, "Ġinvestigation": 8778, "Math": 8779, "-title": 8780, "Ġchurch": 8781, "Ġdespite": 8782, "chain": 8783, "Ġwhatever": 8784, "arian": 8785, "fn": 8786, "Ġmeta": 8787, "})ĊĊ": 8788, "UFF": 8789, "Ġregarding": 8790, "_SUCCESS": 8791, "mes": 8792, "ĠIntent": 8793, "Ġresolve": 8794, "poss": 8795, "ira": 8796, "force": 8797, "oice": 8798, "Ã¢": 8799, "Ġpm": 8800, "Ġupdates": 8801, "Arr": 8802, "ĠÑ": 8803, "testing": 8804, "Ġtoward": 8805, "ntax": 8806, "ëĭ": 8807, "Ġlisten": 8808, "Ġgoals": 8809, "InstanceState": 8810, "Dr": 8811, "Ġrare": 8812, "Ġtrail": 8813, "Keys": 8814, "Cal": 8815, "Car": 8816, "ĠPeople": 8817, "ĉlocal": 8818, "classes": 8819, "Reference": 8820, ".forEach": 8821, "emb": 8822, "activ": 8823, "Ġprim": 8824, "redict": 8825, "Ġrad": 8826, "æķ°": 8827, ".Back": 8828, "Ġspread": 8829, "Ġclock": 8830, "Ġvir": 8831, "editor": 8832, "Ġefforts": 8833, "Ġbranch": 8834, "Ġindust": 8835, "Ġmotor": 8836, "Ġamb": 8837, "Ġdatetime": 8838, "Ġrencont": 8839, "ĠChristian": 8840, "ĠAmericans": 8841, "full": 8842, "Ġfmt": 8843, ".main": 8844, "Ġcaused": 8845, "_update": 8846, "ĠContent": 8847, "ATCH": 8848, "Ġbath": 8849, "ĠEach": 8850, "Ġradio": 8851, "achment": 8852, "uzz": 8853, "Submit": 8854, "Ġrestrict": 8855, "abin": 8856, "ĠLoad": 8857, "Ġextension": 8858, "Ġessay": 8859, "Ġhat": 8860, "aviour": 8861, "toBe": 8862, "\":[": 8863, "Ġoffered": 8864, "Ġvill": 8865, "(double": 8866, "æĹ¥": 8867, "bc": 8868, "_free": 8869, "ĠMiss": 8870, "ĠBer": 8871, "Ġè": 8872, "ĠLike": 8873, "Ġhelped": 8874, ".getName": 8875, "_AL": 8876, "Ġspirit": 8877, "ĠApache": 8878, "ws": 8879, "Ġtherefore": 8880, "(params": 8881, "_img": 8882, "Ġpeace": 8883, "Ġincor": 8884, "ĠEXPECT": 8885, "Ġminor": 8886, "ipes": 8887, "ĉdata": 8888, "selector": 8889, "city": 8890, "trie": 8891, ".base": 8892, "_frame": 8893, "Ġopened": 8894, "/json": 8895, "LY": 8896, "nu": 8897, ".De": 8898, "tf": 8899, "margin": 8900, ".Parse": 8901, "Ġpi": 8902, "Ġeq": 8903, "bd": 8904, "Fields": 8905, "ĠTree": 8906, "Ġban": 8907, "istan": 8908, "ĊĠĠĠĠĠĠĠĠĊ": 8909, "ĉgl": 8910, "Ġproduced": 8911, "system": 8912, "Mark": 8913, "_hash": 8914, "Ġbg": 8915, "Ġconstit": 8916, "ĠLeague": 8917, "Ġmission": 8918, "_format": 8919, "([Ċ": 8920, "clusion": 8921, "!\"": 8922, "Ð·": 8923, "break": 8924, "ĉswitch": 8925, "Ġther": 8926, "Transform": 8927, "Ġfootball": 8928, "-link": 8929, "route": 8930, ".auth": 8931, "Ġbag": 8932, "overs": 8933, "Ġenabled": 8934, "Ġrac": 8935, "(I": 8936, "CR": 8937, "ancing": 8938, "Ġmanaged": 8939, "_q": 8940, "NGTH": 8941, "Ġmac": 8942, "ĠAuto": 8943, "amente": 8944, "Ġ'',": 8945, ".Append": 8946, "Ġpin": 8947, ".item": 8948, "acking": 8949, "Ġoccas": 8950, "person": 8951, "Ġti": 8952, ".Reg": 8953, "Ġhaven": 8954, "Ġglass": 8955, "Ġ\"</": 8956, "ĠSimple": 8957, "Print": 8958, "Ġsurround": 8959, "NO": 8960, "ãĢĤĊ": 8961, "ĠĠĠĠĠĠĠĠčĊ": 8962, "ĠMany": 8963, "Ġ\"_": 8964, "Ġweekend": 8965, "Ġsomew": 8966, ".params": 8967, "small": 8968, "ATED": 8969, "Ġplugin": 8970, "fields": 8971, "ĠInitialize": 8972, "oon": 8973, "atile": 8974, "ye": 8975, "Ġvous": 8976, "LAG": 8977, "Ġolder": 8978, "Ġgam": 8979, "Ġextremely": 8980, "Ġhet": 8981, "enum": 8982, "ĠSET": 8983, "xff": 8984, "Ġtimer": 8985, "/index": 8986, "Ġcritical": 8987, "Rows": 8988, "_argument": 8989, "Ġexecute": 8990, "Ġshowing": 8991, ".xml": 8992, "-list": 8993, "Role": 8994, "typename": 8995, "_method": 8996, "that": 8997, "cher": 8998, "ĠâĨ": 8999, "XT": 9000, "Ġthousands": 9001, "ĉn": 9002, "Ġresp": 9003, "_price": 9004, "olut": 9005, "Ag": 9006, "ĠTwo": 9007, "Ġbecomes": 9008, "Ġhus": 9009, ".Use": 9010, "theme": 9011, "urb": 9012, "Ġ/*Ċ": 9013, "erialize": 9014, "ARN": 9015, "Ġlose": 9016, "Lower": 9017, "Ġvel": 9018, "Ġdefense": 9019, "condition": 9020, "Ġbes": 9021, "Ġdry": 9022, "Ġscroll": 9023, ".Show": 9024, "IEL": 9025, "Ð¾ÑĢ": 9026, "ĠRest": 9027, "Where": 9028, "oods": 9029, "ĠJes": 9030, "Ġwire": 9031, "_INFO": 9032, "Ġstrings": 9033, "gment": 9034, "Ġmatches": 9035, "Ġelectric": 9036, "Ġexcellent": 9037, "ĠCouncil": 9038, "idade": 9039, "Ġwx": 9040, "push": 9041, "_entry": 9042, "Ġtasks": 9043, "Ġrich": 9044, "sa": 9045, "ĠSmith": 9046, "UNCTION": 9047, "Pointer": 9048, "pective": 9049, "Ġwidget": 9050, "ista": 9051, "Ġagency": 9052, "Ġsich": 9053, "ologies": 9054, "Ġtrial": 9055, "alysis": 9056, ".check": 9057, "ARK": 9058, "ĠonChange": 9059, "about": 9060, "',$": 9061, "(val": 9062, "Ġplaced": 9063, "_NO": 9064, "Ġdan": 9065, ".equal": 9066, "ĉĠĠĠĠĠ": 9067, "Ġweather": 9068, ".game": 9069, "Ġdestination": 9070, "_USER": 9071, "iece": 9072, "Ġprovider": 9073, ".last": 9074, "plex": 9075, "Note": 9076, "/js": 9077, "ĠpÃ¥": 9078, "Ġplanning": 9079, "attribute": 9080, "PRO": 9081, "atches": 9082, "Ġ<-": 9083, "Ġseeing": 9084, "Ġcancel": 9085, "_ind": 9086, ".keys": 9087, "Ġvisual": 9088, "ĠCurrent": 9089, "ĠCollege": 9090, "ĠRock": 9091, "Ġagreement": 9092, "ĠStore": 9093, "oving": 9094, "Ġcorner": 9095, "ampions": 9096, "ISE": 9097, "Fin": 9098, "Ġprotection": 9099, "Ġfi": 9100, "Play": 9101, "plugin": 9102, ")}": 9103, ".frame": 9104, "-z": 9105, "Ġtransition": 9106, "igin": 9107, "Ġcandidate": 9108, "ĠUnion": 9109, "_values": 9110, "(map": 9111, "cle": 9112, "Ġtrend": 9113, "wide": 9114, "aren": 9115, "Loc": 9116, "UTH": 9117, "ĠBay": 9118, "Ġsmaller": 9119, "ius": 9120, "well": 9121, "Ġcriminal": 9122, "Ġconflic": 9123, "bert": 9124, "_INT": 9125, "Ġinvestment": 9126, "custom": 9127, "ĠSession": 9128, "_write": 9129, "ania": 9130, "ĠMass": 9131, "_EQ": 9132, "_NOT": 9133, "Ġviolence": 9134, "Argument": 9135, "_email": 9136, "Ġbelong": 9137, "_function": 9138, "Ġenemy": 9139, "ema": 9140, "ĠAddress": 9141, ".empty": 9142, "Ġinner": 9143, "ĠContact": 9144, "Loader": 9145, "<input": 9146, "ĠCA": 9147, "lot": 9148, "Ġpictures": 9149, "ĠSupport": 9150, "_names": 9151, "Layer": 9152, "ĠClick": 9153, "Sum": 9154, "Ã¦": 9155, "ĠLook": 9156, "uous": 9157, "Lib": 9158, "Flags": 9159, "team": 9160, "EP": 9161, "hat": 9162, "override": 9163, "apsed": 9164, "Ġlabels": 9165, "quis": 9166, "ĠStream": 9167, "_device": 9168, "ĠCommit": 9169, "(root": 9170, "\"}": 9171, ".isEmpty": 9172, "ĉM": 9173, "Ġangle": 9174, "ĠBecause": 9175, "%%%%%%%%": 9176, "Ġaim": 9177, "Ġstick": 9178, "stmt": 9179, "agraph": 9180, "answer": 9181, "Ġclin": 9182, "ĠIsl": 9183, ".ext": 9184, "ĠINT": 9185, "Ġstyles": 9186, "Ġborn": 9187, "Ġscr": 9188, "Ġexpand": 9189, "Ġraised": 9190, "TextBox": 9191, "ILL": 9192, "HTTP": 9193, ">)": 9194, "_char": 9195, "resource": 9196, "Ġepisode": 9197, "Ġ'_": 9198, "ĠEs": 9199, "ĠEarth": 9200, "ÂłÂł": 9201, "UPDATE": 9202, "ĠSou": 9203, "uis": 9204, "types": 9205, "Ġmas": 9206, "Ġfav": 9207, "Ġconstruct": 9208, "_rate": 9209, "eras": 9210, "Ġ|Ċ": 9211, "roperties": 9212, "Ġexternal": 9213, "Ġapplied": 9214, "Ġprefix": 9215, "oted": 9216, "lers": 9217, "Ġcold": 9218, "ĠSP": 9219, "ĠChurch": 9220, "ĠOutput": 9221, "losed": 9222, "çļ": 9223, "ificate": 9224, "operation": 9225, "herit": 9226, "xFF": 9227, ".env": 9228, "_err": 9229, "osh": 9230, "Direction": 9231, "Cancel": 9232, "ĠFrank": 9233, "Ġfinding": 9234, ".)ĊĊ": 9235, "Ġrouter": 9236, "ãĥ»": 9237, "ses": 9238, "Ġcrow": 9239, "=='": 9240, "Ġsand": 9241, "Ġrid": 9242, "iture": 9243, "Ġentre": 9244, "Ġobserv": 9245, "Ġvac": 9246, "ðŁ": 9247, "-T": 9248, "Art": 9249, "night": 9250, ".search": 9251, "Ġexchange": 9252, "Ġdistrict": 9253, ".os": 9254, "Ġdepartment": 9255, "Ġdocuments": 9256, "Ġcentury": 9257, "ĠNext": 9258, "Host": 9259, "ĠKIND": 9260, "Ġsusp": 9261, "-P": 9262, "rend": 9263, ".em": 9264, "uite": 9265, "isters": 9266, "(json": 9267, "ĠAnn": 9268, "wt": 9269, "ati": 9270, "ĠHTML": 9271, "when": 9272, "Directory": 9273, "Ġshut": 9274, "<a": 9275, "edy": 9276, "Ġhealthy": 9277, "Ġtemperature": 9278, "ĠGen": 9279, "Ġmetal": 9280, "Ġsubmit": 9281, "ĠDO": 9282, "Ġattract": 9283, "Ġ{};Ċ": 9284, "ĠWord": 9285, "Ġll": 9286, "Ġseemed": 9287, "ko": 9288, "IED": 9289, "Ġlabor": 9290, ".Context": 9291, "Ġasset": 9292, "you": 9293, "Ġcars": 9294, "ĠColumn": 9295, "ĠrÃ©": 9296, "Ġsquare": 9297, "ĠNSString": 9298, "âĢĿ,": 9299, "apes": 9300, "...Ċ": 9301, "Ġthanks": 9302, "(props": 9303, "Ġtick": 9304, "Ġexperiment": 9305, "Ġprison": 9306, "tree": 9307, "-text": 9308, "ĠIOException": 9309, "-width": 9310, "_STATUS": 9311, "fast": 9312, "-body": 9313, "-header": 9314, "Ġguar": 9315, "crete": 9316, "ĠTim": 9317, "Ġclearly": 9318, "ĠRepublican": 9319, "Ġjustify": 9320, "Ð¸ÑĤ": 9321, "ĉĠĠĠĠ": 9322, "cache": 9323, ";//": 9324, "Ġpresence": 9325, "Ġfactors": 9326, "Ġemployee": 9327, "]))": 9328, "Member": 9329, "Ġselector": 9330, "bor": 9331, "ĠMex": 9332, "çļĦ": 9333, "utex": 9334, "_tag": 9335, "ailure": 9336, "ĠNet": 9337, "Ġreli": 9338, "EG": 9339, "Ġfprintf": 9340, "Ġteen": 9341, "loss": 9342, "Ġleaving": 9343, "Delegate": 9344, "Ġbeat": 9345, "Ġminute": 9346, "subscribe": 9347, "Ġredistribute": 9348, "Constants": 9349, "Ġcancer": 9350, "/{": 9351, "BL": 9352, "Ġspan": 9353, "ĠChild": 9354, "Center": 9355, "Ġearth": 9356, "YS": 9357, "ĠLevel": 9358, "Ġsea": 9359, ".support": 9360, ".inner": 9361, ".Item": 9362, "illing": 9363, "ĠĠĠĠĊĠĠĠĠĊ": 9364, "ĠLabel": 9365, "ĠEst": 9366, "(arg": 9367, "boBox": 9368, "ĉforeach": 9369, "cos": 9370, "Failed": 9371, "swers": 9372, "Editor": 9373, "ront": 9374, "ĠMP": 9375, "expr": 9376, "ĠLife": 9377, "Ġ??": 9378, "Ã¶r": 9379, "Ġattend": 9380, "ĠQue": 9381, "Ġspecies": 9382, "-D": 9383, "Ġaus": 9384, "Struct": 9385, "Ġadvantage": 9386, "oston": 9387, "-block": 9388, "initial": 9389, "CRE": 9390, "Ġtruly": 9391, "Ġcompare": 9392, "orney": 9393, "Ġspect": 9394, "Full": 9395, "bes": 9396, "Ġvisible": 9397, "Ġmess": 9398, "stances": 9399, "Ġcloud": 9400, "_version": 9401, "Ġfurn": 9402, "icago": 9403, "LOW": 9404, "Ġtraffic": 9405, "Ġfol": 9406, "rypto": 9407, "Ġdeclar": 9408, "Ġslot": 9409, "ĠExt": 9410, "ĠEngland": 9411, "ĠUnder": 9412, "Ġta": 9413, "letter": 9414, "Ġofficer": 9415, "ĠDonald": 9416, "Yes": 9417, "_json": 9418, "ITableView": 9419, "ĠUSE": 9420, "mployee": 9421, "Ġopinion": 9422, "ĠAut": 9423, "border": 9424, "Ġadvice": 9425, "Ġautomatically": 9426, "isco": 9427, "Ġmm": 9428, ".vis": 9429, "aml": 9430, "Ġinitialize": 9431, "Ġ({": 9432, "Ġ;ĊĊ": 9433, "Ġgeneration": 9434, "Ġbits": 9435, "clipse": 9436, "Ġunf": 9437, "utors": 9438, "plt": 9439, "Ġdelta": 9440, "estroy": 9441, "isis": 9442, "<br": 9443, "Ġlimitations": 9444, "Ġended": 9445, "ĠMad": 9446, "ilm": 9447, "These": 9448, "ĠMinister": 9449, "Ġchart": 9450, "Fragment": 9451, "Ġindependent": 9452, "Year": 9453, "Ġinstr": 9454, "Ġtags": 9455, "AVE": 9456, "ĠArch": 9457, "stop": 9458, "Progress": 9459, "Ġmi": 9460, "Ġlearned": 9461, "Ge": 9462, "Ġhotel": 9463, "SM": 9464, "TYPE": 9465, "Ġcy": 9466, "ERSION": 9467, "unately": 9468, "limit": 9469, "sel": 9470, "Ġmovies": 9471, "Ġsteel": 9472, "oz": 9473, "gb": 9474, "ĠCamp": 9475, "site": 9476, "ĠLogger": 9477, "PLE": 9478, "Ð¾Ð´": 9479, ".right": 9480, "ĠCore": 9481, "Ġmixed": 9482, "step": 9483, "Ġputs": 9484, "super": 9485, "Router": 9486, ".Http": 9487, "lyph": 9488, "ĠColors": 9489, "Ġandroidx": 9490, ".str": 9491, "Ġinnov": 9492, "Ġdeck": 9493, "'>Ċ": 9494, "apers": 9495, "](": 9496, "continue": 9497, "spec": 9498, "ĠRoad": 9499, "ASH": 9500, "iliar": 9501, "Ġcontinues": 9502, "Ġappoint": 9503, "Ġ#Ċ": 9504, "ĠVir": 9505, "Ġ?>\"": 9506, "Ġbin": 9507, "}\",": 9508, "going": 9509, "each": 9510, "BD": 9511, "ĠAccess": 9512, "Doc": 9513, "ĠManagement": 9514, "BER": 9515, "asket": 9516, ".getInstance": 9517, "Ġestablished": 9518, "socket": 9519, "INS": 9520, "ĉvirtual": 9521, "ĉresult": 9522, "READ": 9523, "_height": 9524, "ĠFont": 9525, "Ġ();Ċ": 9526, "_html": 9527, "Ġneighbor": 9528, "lor": 9529, "Ġgather": 9530, "Ġ})ĊĊ": 9531, "Ġidentity": 9532, "Ġfab": 9533, "padding": 9534, "ĠRoute": 9535, "Enumerable": 9536, "Ã´": 9537, "Ġforced": 9538, "/jquery": 9539, ".ĊĊĊĊĊĊ": 9540, "resents": 9541, "_left": 9542, ".Param": 9543, "ĉthrow": 9544, "ĠHam": 9545, "Ġeventually": 9546, "acer": 9547, "pub": 9548, "Ġtra": 9549, "unique": 9550, "del": 9551, "ĠFlorida": 9552, "ĠClean": 9553, "xa": 9554, "ĠÂ·": 9555, "Ġvalidate": 9556, "Visual": 9557, "Expression": 9558, "_func": 9559, "member": 9560, "ĉh": 9561, "trl": 9562, "ĉG": 9563, "napshot": 9564, "ĠPropTypes": 9565, "vin": 9566, "])ĊĊ": 9567, "owl": 9568, "ifies": 9569, "Ġ$('.": 9570, "ĠContext": 9571, "ĠToast": 9572, ".Key": 9573, "Ġofficers": 9574, "/n": 9575, "sn": 9576, "undefined": 9577, ".items": 9578, "utow": 9579, "amage": 9580, "Ġaccounts": 9581, "ookie": 9582, "Section": 9583, "icians": 9584, "Ġadvis": 9585, "(is": 9586, "[:,": 9587, "ĠFrance": 9588, "Func": 9589, "icious": 9590, "Ġtok": 9591, "Channel": 9592, "ĠAD": 9593, "_NUM": 9594, "Ġtimeout": 9595, "lemma": 9596, "reme": 9597, "uj": 9598, ".Al": 9599, "uclear": 9600, "(os": 9601, "(\"<": 9602, "[Ċ": 9603, "fetch": 9604, "Ġbal": 9605, "Ġguid": 9606, "-align": 9607, "ĠWrite": 9608, "ĠOnce": 9609, "utowired": 9610, "ODULE": 9611, "Ġpitch": 9612, "CF": 9613, "bytes": 9614, "ĠCommission": 9615, "Ġincred": 9616, "PER": 9617, "_response": 9618, "ĠLos": 9619, "parser": 9620, "Ġassume": 9621, ".Request": 9622, "ĠToken": 9623, "_position": 9624, "Ġnom": 9625, "-term": 9626, "Ġremaining": 9627, "iostream": 9628, "Ġpieces": 9629, "apy": 9630, "ĠLess": 9631, "range": 9632, "umbn": 9633, "prise": 9634, "_option": 9635, "Impl": 9636, "kwargs": 9637, "Ġbusinesses": 9638, "Alert": 9639, "Ġparties": 9640, "ĠContainer": 9641, "ĠPrivate": 9642, "ĠPlan": 9643, "Ġregistered": 9644, "Ġjour": 9645, "acker": 9646, "ÐµÐ½Ð¸": 9647, "/>": 9648, "chat": 9649, "sect": 9650, "Ġcreation": 9651, "olutely": 9652, "Ġinstant": 9653, "Ġdelivery": 9654, "icken": 9655, "yes": 9656, "ĠFranc": 9657, "bling": 9658, "enda": 9659, "[(": 9660, "_range": 9661, "Ġschedule": 9662, "Conn": 9663, "Ġthank": 9664, "xd": 9665, "Ġhook": 9666, "Ġdocumentation": 9667, "Parameters": 9668, "Hello": 9669, "vt": 9670, "Ġarticles": 9671, "Ġwest": 9672, "defined": 9673, ".select": 9674, "okens": 9675, "ĠVAL": 9676, ".file": 9677, "reset": 9678, "Ġmys": 9679, "ĠMA": 9680, "]),": 9681, "Ġcities": 9682, "related": 9683, "åĽ": 9684, "Ġappeared": 9685, "Ġwid": 9686, ".panel": 9687, "ĠIns": 9688, ".entity": 9689, "Ġdecre": 9690, "ĠLou": 9691, "(time": 9692, "ĠThank": 9693, ".createElement": 9694, "Ġmentioned": 9695, "ounce": 9696, "ĠTry": 9697, "ĠWall": 9698, "/images": 9699, "ĠMenu": 9700, "'čĊ": 9701, "ĠEr": 9702, "Ġcritic": 9703, "ĠYear": 9704, "(param": 9705, "Ġflo": 9706, "NN": 9707, "ooter": 9708, "Ġ];Ċ": 9709, "ĠAff": 9710, "\"github": 9711, "rooms": 9712, "Ġhyp": 9713, "global": 9714, "Ġavec": 9715, "æľĪ": 9716, "Ġcompletion": 9717, "Ġcond": 9718, "onymous": 9719, "(temp": 9720, "Ġstars": 9721, "Ġrelevant": 9722, "Ġcovered": 9723, "Ġelim": 9724, "_types": 9725, "(bool": 9726, "Ġtu": 9727, "_exists": 9728, "Ġsecure": 9729, "Ġstored": 9730, "]/": 9731, "xF": 9732, "ĠController": 9733, "Ġmigr": 9734, "MI": 9735, "ĠDen": 9736, "Ġannual": 9737, "UIL": 9738, "-and": 9739, "Ġcrime": 9740, "bel": 9741, "Ġkitchen": 9742, "@g": 9743, "_ph": 9744, "ournament": 9745, "ĠSocial": 9746, "ĠSpecial": 9747, "logger": 9748, "Ġtail": 9749, "Ġunknown": 9750, "ded": 9751, "Ġapprec": 9752, "(db": 9753, "cf": 9754, "Ġassign": 9755, "-out": 9756, "ĠMont": 9757, "dp": 9758, "widget": 9759, "Ġstone": 9760, "-primary": 9761, ".grid": 9762, "Results": 9763, "azz": 9764, "Ġdaughter": 9765, "Ġcurr": 9766, "Ġlin": 9767, "Ġsouth": 9768, "forms": 9769, "ĠOUT": 9770, "lette": 9771, "aks": 9772, "igure": 9773, "ĠEU": 9774, "variable": 9775, "Ġbrief": 9776, "ĠScott": 9777, "Ġconference": 9778, "anda": 9779, "_lock": 9780, "oral": 9781, "Ġeine": 9782, "ORS": 9783, "esso": 9784, "Ġris": 9785, "Ġgender": 9786, "estic": 9787, "License": 9788, "(out": 9789, "Ġms": 9790, "See": 9791, "Ġwilling": 9792, "aze": 9793, "Ġsports": 9794, "Ġyes": 9795, "lu": 9796, "Ġpurs": 9797, "/javascript": 9798, "-pro": 9799, "navbar": 9800, "_product": 9801, "/bootstrap": 9802, "Ġdriving": 9803, "ĠÄ": 9804, "Ġpropos": 9805, "ultip": 9806, "uplic": 9807, ".email": 9808, "Ġapprox": 9809, "(cl": 9810, "Ġwear": 9811, "Ġreply": 9812, "asset": 9813, "Ġice": 9814, "Ġtx": 9815, "kr": 9816, "ĠGermany": 9817, "ĠGeorge": 9818, "Ġcb": 9819, "ĉerr": 9820, "Move": 9821, "Ġpoly": 9822, "voice": 9823, "}\"": 9824, "Ġanimal": 9825, "Av": 9826, "ĠLocation": 9827, "Ġnative": 9828, "][\"": 9829, "<double": 9830, "Ġmais": 9831, ",int": 9832, "Ġprepar": 9833, "Ġinterval": 9834, "plementation": 9835, "_ERR": 9836, "Ġbug": 9837, ">\"": 9838, "stat": 9839, "Ġ},čĊ": 9840, "<span": 9841, "Ġfaith": 9842, "Ġrom": 9843, "prev": 9844, "ĠElect": 9845, "Find": 9846, "Ġgod": 9847, "otor": 9848, "original": 9849, "Cpp": 9850, "ĠSenate": 9851, "Ġpositions": 9852, "Ġweapons": 9853, "Ġcoff": 9854, "Ġpurposes": 9855, "pol": 9856, "Ġimpress": 9857, "Ġanimals": 9858, ".Entity": 9859, "(np": 9860, "Ġmurder": 9861, "Ġ``": 9862, "flag": 9863, "Ġsolutions": 9864, "ĠActive": 9865, "Ġbright": 9866, ".date": 9867, "Ġsitu": 9868, "ï¼Ī": 9869, ".ID": 9870, "Ġsie": 9871, "),čĊ": 9872, "akt": 9873, "Space": 9874, ".dat": 9875, ".indexOf": 9876, "han": 9877, "azine": 9878, "ĠZe": 9879, "Ġcrash": 9880, "(/": 9881, ">=": 9882, "Ð±": 9883, "iva": 9884, ".AutoSize": 9885, "ĠLat": 9886, "_ext": 9887, "Initialize": 9888, ".register": 9889, "OPY": 9890, "Ġreverse": 9891, "_dis": 9892, "'][": 9893, "Ġprompt": 9894, "onto": 9895, "ĠJournal": 9896, "router": 9897, "Ġmysqli": 9898, "#else": 9899, ")\"": 9900, "-xs": 9901, "lets": 9902, "phan": 9903, ".LE": 9904, "Will": 9905, "Ġafford": 9906, "Ġskill": 9907, "-toggle": 9908, "NC": 9909, "Bind": 9910, "TS": 9911, "Just": 9912, "iteral": 9913, "YP": 9914, "ĉunsigned": 9915, "Ġwind": 9916, ")):Ċ": 9917, "Ġwarning": 9918, "ĠWater": 9919, "Ġdraft": 9920, "Ġcm": 9921, "Ġsam": 9922, "Ġholding": 9923, "zip": 9924, "ĠScience": 9925, "Ġsupposed": 9926, "Gen": 9927, "Ġdiet": 9928, "<h": 9929, "ĠPass": 9930, "vi": 9931, "Ġhusband": 9932, "ï¿½ï¿½": 9933, "note": 9934, "ĠAbout": 9935, "ĠInstitute": 9936, "Ġclimate": 9937, ".Format": 9938, "Ġnut": 9939, "ested": 9940, "Ġapparent": 9941, "Ġholds": 9942, "fi": 9943, "news": 9944, "CM": 9945, "video": 9946, "':'": 9947, "DITION": 9948, "ping": 9949, "Ġsenior": 9950, "wa": 9951, "-->Ċ": 9952, "_default": 9953, "ĠDatabase": 9954, "rep": 9955, "ESS": 9956, "nergy": 9957, ".Find": 9958, "_mask": 9959, "Ġrise": 9960, "Ġkernel": 9961, "::$": 9962, ".Q": 9963, "Ġoffering": 9964, "decl": 9965, "ĠCS": 9966, "Ġlisted": 9967, "Ġmostly": 9968, "enger": 9969, "Ġblocks": 9970, "olo": 9971, "Ġgoverning": 9972, "\\F": 9973, "Ġconcent": 9974, ".getText": 9975, "Ġmb": 9976, "Ġoccurred": 9977, "Ġchanging": 9978, "Scene": 9979, "_CODE": 9980, "Beh": 9981, "\"The": 9982, "Ġtile": 9983, "ĠAssociation": 9984, "ĉP": 9985, "alty": 9986, "_ad": 9987, "odies": 9988, "iated": 9989, "Ġprepared": 9990, "possible": 9991, "Ġmort": 9992, "TEST": 9993, "Ġignore": 9994, "Ġcalc": 9995, "Ġrs": 9996, "ĠassertEquals": 9997, "Ġsz": 9998, "ĠTHIS": 9999, ".\"Ċ": 10000, "Ġcanvas": 10001, "java": 10002, "Ġdut": 10003, "VALID": 10004, ".sql": 10005, ".input": 10006, "Ġaux": 10007, "Sup": 10008, "Ġartist": 10009, "Vec": 10010, "_TIME": 10011, ".stringify": 10012, "etween": 10013, "ĠCategory": 10014, "Ġ[-": 10015, "ĠDevExpress": 10016, "ĠJul": 10017, "Ġring": 10018, ".ed": 10019, "YY": 10020, "Let": 10021, "TextField": 10022, "Ġflat": 10023, "_print": 10024, "ĠOTHER": 10025, "adian": 10026, "Ġchecked": 10027, "ele": 10028, "Align": 10029, "standing": 10030, "Ġ[],": 10031, "Ġlab": 10032, "ucky": 10033, "ĠChristmas": 10034, "(image": 10035, ".module": 10036, "Ġlots": 10037, "Ġslightly": 10038, "(final": 10039, "erge": 10040, "è¿": 10041, "ĠPolice": 10042, "ĠRight": 10043, "Ġaward": 10044, "ĠOS": 10045, "Ġ{}ĊĊ": 10046, "Ġptr": 10047, "oves": 10048, "icated": 10049, "ÐµÐ¼": 10050, "Ġmanage": 10051, "oliday": 10052, "Amount": 10053, "oolStrip": 10054, "tbody": 10055, "Nav": 10056, "wrap": 10057, "BB": 10058, "Ġwatching": 10059, "arios": 10060, "Ġoptional": 10061, "_K": 10062, "ĠLicensed": 10063, ".Map": 10064, "Timer": 10065, "ĠAP": 10066, "ĠRev": 10067, "(o": 10068, ",c": 10069, "umin": 10070, "etailed": 10071, "ĠHy": 10072, "Ġblank": 10073, "agger": 10074, "ĠSelf": 10075, "()[": 10076, ".make": 10077, "earn": 10078, "channel": 10079, "<pre": 10080, "blem": 10081, "_password": 10082, "_sp": 10083, "icing": 10084, "ez": 10085, "Ġtheory": 10086, "ĠTer": 10087, ",n": 10088, "logo": 10089, "ĠHTTP": 10090, "()))": 10091, ".handle": 10092, ">;Ċ": 10093, "World": 10094, "Ġpython": 10095, "Ġlif": 10096, "Ġtrav": 10097, "Ġconven": 10098, "company": 10099, "ĠClub": 10100, "Ver": 10101, "Btn": 10102, "Ġzone": 10103, "products": 10104, "ĠEduc": 10105, "Ġverify": 10106, "ĠMil": 10107, "ono": 10108, "]);ĊĊ": 10109, "ENCE": 10110, "Ġpacket": 10111, "Ġcer": 10112, "Ġenumer": 10113, "Ġpars": 10114, "formed": 10115, "Ġoccup": 10116, "tre": 10117, "Ġexercise": 10118, "Day": 10119, "_sum": 10120, "Ġasking": 10121, "aption": 10122, "Ġorders": 10123, "Ġspending": 10124, "ĠERR": 10125, ".Dis": 10126, "ĠUtil": 10127, "âĢľI": 10128, "\\'": 10129, "?)": 10130, "/>Ċ": 10131, "Ġemot": 10132, "Ġinfluence": 10133, "ĠAfrica": 10134, "atters": 10135, "Ùħ": 10136, ".session": 10137, "Ġchief": 10138, "ĉĉĉĉĉĉĉĉĉĉĉ": 10139, "Ġtom": 10140, "cluded": 10141, "serial": 10142, "_handler": 10143, ".Type": 10144, "aped": 10145, "Ġpolicies": 10146, "-ex": 10147, "-tr": 10148, "blank": 10149, "merce": 10150, "Ġcoverage": 10151, "Ġrc": 10152, "_matrix": 10153, "_box": 10154, "Ġcharges": 10155, "ĠBoston": 10156, "Pe": 10157, "Ġcircum": 10158, "Ġfilled": 10159, "Ġnorth": 10160, "ictureBox": 10161, "ĉres": 10162, "è®": 10163, "Ġtermin": 10164, "Ġ[âĢ¦": 10165, "IRECT": 10166, "Ġber": 10167, "Ġ\"../../": 10168, "retch": 10169, ".code": 10170, "_col": 10171, "ĠGovernment": 10172, "Ġargv": 10173, "ĠLord": 10174, "asi": 10175, "Exec": 10176, "ĉlet": 10177, "vertis": 10178, "Ġdiscussion": 10179, "enance": 10180, "outube": 10181, "typeof": 10182, "Ġserved": 10183, "ĠPut": 10184, "ĉx": 10185, "Ġsweet": 10186, "Before": 10187, "ategy": 10188, ".of": 10189, "ĠMaterial": 10190, "Sort": 10191, "ONT": 10192, "igital": 10193, "Why": 10194, "Ġsust": 10195, "Ġç": 10196, "abet": 10197, "Ġsegment": 10198, "Ġ[],Ċ": 10199, "ĠMuslim": 10200, "ĠfindViewById": 10201, "cut": 10202, "_TEXT": 10203, "ĠMary": 10204, "Ġloved": 10205, "Ġlie": 10206, "ĠJO": 10207, "Ġisset": 10208, "month": 10209, "Ġprime": 10210, "ti": 10211, "ĠCarol": 10212, "Use": 10213, "ĠPop": 10214, "ĠSave": 10215, "Interval": 10216, "execute": 10217, "dy": 10218, "ĠIran": 10219, "_cont": 10220, "ĉT": 10221, "Ġphase": 10222, "checkbox": 10223, "week": 10224, "Ġhide": 10225, "Ġtil": 10226, "Ġju": 10227, "Custom": 10228, "burg": 10229, "/M": 10230, "TON": 10231, "Ġquant": 10232, "Ġrub": 10233, "ixels": 10234, "Ġinstalled": 10235, "Ġdump": 10236, "Ġproperly": 10237, "(List": 10238, "Ġdecide": 10239, "apply": 10240, "Has": 10241, "Ġkeeping": 10242, "Ġcitizens": 10243, "Ġjoint": 10244, "pool": 10245, "Socket": 10246, "_op": 10247, "Ġweapon": 10248, "gnore": 10249, "ĠExec": 10250, "otten": 10251, "ĠMS": 10252, "Ġ(-": 10253, "ĠReview": 10254, "Ġexamples": 10255, "Ġtight": 10256, "!(": 10257, "DP": 10258, "ĠMessageBox": 10259, "Ġphotograph": 10260, "URI": 10261, "Ã©t": 10262, "low": 10263, "ĠGrand": 10264, ".persistence": 10265, "Ġmaintain": 10266, "Ġnums": 10267, "Ġzip": 10268, "ials": 10269, "ĠGets": 10270, "peg": 10271, "ĠBuffer": 10272, "~~~~": 10273, "rastructure": 10274, "ĠPL": 10275, "uen": 10276, "obby": 10277, "sizeof": 10278, "Ġpic": 10279, "Ġseed": 10280, "Ġexperienced": 10281, "Ġodd": 10282, "Ġkick": 10283, "Ġprocedure": 10284, "avigator": 10285, "-on": 10286, ",j": 10287, "ĠAlthough": 10288, "ĠuserId": 10289, "accept": 10290, "Blue": 10291, "IColor": 10292, "layer": 10293, "available": 10294, "Ġends": 10295, ".table": 10296, "Ġdataset": 10297, "bus": 10298, "Ġexplain": 10299, "(pro": 10300, "ĠCommittee": 10301, "Ġnoted": 10302, "]:Ċ": 10303, "Dim": 10304, "stdio": 10305, ".\",Ċ": 10306, "_source": 10307, "ĠWeek": 10308, "ĠEdge": 10309, "Ġoperating": 10310, "Ġeste": 10311, "ipl": 10312, "agination": 10313, "Ġproceed": 10314, "Ġanimation": 10315, ".Models": 10316, "ĠWatch": 10317, "iat": 10318, "Ġoppon": 10319, "/A": 10320, "Report": 10321, "Ġsounds": 10322, "_buf": 10323, "IELD": 10324, "Ġbund": 10325, "ĉget": 10326, ".pr": 10327, "(tmp": 10328, "Ġkid": 10329, ">ĊĊĊ": 10330, "Ġyang": 10331, "NotFound": 10332, "ÑĨ": 10333, "math": 10334, "@gmail": 10335, "ĠLIMIT": 10336, "redients": 10337, "Ġvent": 10338, "avigate": 10339, "Look": 10340, "Ġreligious": 10341, "Ġrand": 10342, "rio": 10343, "(GL": 10344, "_ip": 10345, "uan": 10346, "iciency": 10347, "ĠChange": 10348, ">čĊčĊ": 10349, "ĠEntity": 10350, "Ġrencontre": 10351, "ĠRet": 10352, "plan": 10353, "Ã©n": 10354, "BOOL": 10355, "uries": 10356, "train": 10357, "Definition": 10358, "============": 10359, "zz": 10360, "Animation": 10361, "ĠOK": 10362, "_menu": 10363, ".bl": 10364, "_score": 10365, "Ġacad": 10366, "(System": 10367, "Ġrefresh": 10368, "'=>$": 10369, ".Graphics": 10370, "amento": 10371, "pid": 10372, "tc": 10373, "Ġtips": 10374, "Ġhomes": 10375, "Ġfuel": 10376, "âĸ": 10377, "_helper": 10378, "ĠĠčĊ": 10379, "ĠRoom": 10380, ".Close": 10381, "_attr": 10382, "ĠMount": 10383, "ĠEv": 10384, "arser": 10385, "_top": 10386, "eah": 10387, "ĠDelete": 10388, "ãĢį": 10389, "uke": 10390, "Ġusage": 10391, "aria": 10392, "_dev": 10393, "Ġtexture": 10394, "Ġconversation": 10395, "eper": 10396, "Bean": 10397, "done": 10398, "nonatomic": 10399, "ĠSecond": 10400, "Ġshooting": 10401, "_pre": 10402, "Components": 10403, "Ġ]ĊĊ": 10404, "__,": 10405, "stitution": 10406, ".Char": 10407, ">();ĊĊ": 10408, "Ġpresented": 10409, "Ġwa": 10410, "oker": 10411, "-ĊĊ": 10412, "iner": 10413, "Ġbecoming": 10414, "Ġincident": 10415, "Att": 10416, "Ġrevealed": 10417, "forc": 10418, "Ġboot": 10419, ".page": 10420, "Enumerator": 10421, "_->": 10422, "Photo": 10423, "Ġspring": 10424, ".\",": 10425, "ĠDictionary": 10426, "BJECT": 10427, "Ġlocations": 10428, "Ġsamples": 10429, "InputStream": 10430, "ĠBrown": 10431, "Ġstats": 10432, "quality": 10433, "Ñħ": 10434, "-dis": 10435, "Ġhelping": 10436, "Ġped": 10437, "(se": 10438, "ĠWho": 10439, "alian": 10440, "internal": 10441, "Ġft": 10442, ">().": 10443, "->{": 10444, "Ġmine": 10445, "Ġsector": 10446, "Ġgro": 10447, "Ġopportunities": 10448, "ĠÃ¼": 10449, "Ġmp": 10450, "Ġalleged": 10451, "Ġdoubt": 10452, "Mouse": 10453, "About": 10454, "_part": 10455, "Ġchair": 10456, "Ġstopped": 10457, "loop": 10458, "entities": 10459, "Ġapps": 10460, "ansion": 10461, "Ġmental": 10462, "FR": 10463, "Ġdefend": 10464, "care": 10465, "Ġideal": 10466, "/api": 10467, "urface": 10468, "Ġele": 10469, "ulator": 10470, "ĠRights": 10471, "anguages": 10472, "Ġfunds": 10473, "Ġadapt": 10474, "Attributes": 10475, "Ġdeploy": 10476, "opts": 10477, "Ġvalidation": 10478, "Ġconcerns": 10479, "uce": 10480, ".num": 10481, "ulture": 10482, "ila": 10483, "Ġcup": 10484, "Ġpure": 10485, ".Fore": 10486, "ĠHashMap": 10487, ".valueOf": 10488, "asm": 10489, "MO": 10490, "Ġcs": 10491, "Ġstores": 10492, "Ġcommunication": 10493, "mem": 10494, ".EventHandler": 10495, ".Status": 10496, "_right": 10497, ".setOn": 10498, "Sheet": 10499, "Ġidentify": 10500, "enerated": 10501, "ordered": 10502, "Ġ\"[": 10503, "Ġswe": 10504, "Condition": 10505, "ĠAccording": 10506, "Ġprepare": 10507, "Ġrob": 10508, "Pool": 10509, "Ġsport": 10510, "rv": 10511, "ĠRouter": 10512, "Ġalternative": 10513, "([]": 10514, "ĠChicago": 10515, "ipher": 10516, "ische": 10517, "ĠDirector": 10518, "kl": 10519, "ĠWil": 10520, "keys": 10521, "Ġmysql": 10522, "Ġwelcome": 10523, "king": 10524, "ĠManager": 10525, "Ġcaught": 10526, ")}Ċ": 10527, "Score": 10528, "_PR": 10529, "Ġsurvey": 10530, "hab": 10531, "Headers": 10532, "ADER": 10533, "Ġdecor": 10534, "Ġturns": 10535, "Ġradius": 10536, "errupt": 10537, "Cor": 10538, "Ġmel": 10539, "Ġintr": 10540, "(q": 10541, "ĠAC": 10542, "amos": 10543, "MAX": 10544, "ĠGrid": 10545, "ĠJesus": 10546, ".DE": 10547, "Ġts": 10548, "Ġlinked": 10549, "free": 10550, "ĠQt": 10551, "Ġ/**čĊ": 10552, "Ġfaster": 10553, "ctr": 10554, "_J": 10555, "DT": 10556, ".Check": 10557, "Ġcombination": 10558, "Ġintended": 10559, "-the": 10560, "-type": 10561, "ectors": 10562, "ami": 10563, "uting": 10564, "Ġuma": 10565, "XML": 10566, "UCT": 10567, "Ap": 10568, "ĠRandom": 10569, "Ġran": 10570, ".sort": 10571, "Ġsorted": 10572, ".Un": 10573, "_PER": 10574, "itory": 10575, "Ġpriority": 10576, "ĠGal": 10577, "ĠOld": 10578, "hot": 10579, "ĠDisplay": 10580, "(sub": 10581, "_TH": 10582, "_Y": 10583, "ĠCare": 10584, "loading": 10585, "Kind": 10586, "_handle": 10587, ",,": 10588, "rase": 10589, "_replace": 10590, "ĠRT": 10591, "Ġentered": 10592, "gers": 10593, "Ġich": 10594, "(start": 10595, "/app": 10596, "Ġbrother": 10597, "Memory": 10598, "Outlet": 10599, "Ġutf": 10600, "prec": 10601, "Ġnavigation": 10602, "ORK": 10603, "Ġdst": 10604, "Detail": 10605, "Ġaudience": 10606, "Ġdur": 10607, "Ġcluster": 10608, "unched": 10609, "Ġ],": 10610, "Ġcomfortable": 10611, ".values": 10612, "ĠTotal": 10613, "Ġsnap": 10614, "Ġstandards": 10615, "Ġperformed": 10616, "hand": 10617, "(\"@": 10618, "åŃ": 10619, "Ġphil": 10620, "ibr": 10621, "trim": 10622, "Ġforget": 10623, "Ġdoctor": 10624, ".TextBox": 10625, "icons": 10626, ",s": 10627, "ĠOp": 10628, "Sm": 10629, "Stop": 10630, "ĉList": 10631, "ĉu": 10632, "Comment": 10633, "_VERSION": 10634, ".Xtra": 10635, "Person": 10636, "rb": 10637, "LOB": 10638, "ĠCentral": 10639, "ICK": 10640, "raq": 10641, "Ġputting": 10642, "Ġmd": 10643, "ĠLove": 10644, "Program": 10645, "Border": 10646, "oor": 10647, "Ġallowing": 10648, "after": 10649, "Ġentries": 10650, "ĠMaybe": 10651, "]).": 10652, "ĠShort": 10653, ")\\": 10654, ".now": 10655, "friend": 10656, "Ġprefer": 10657, "ĠGPIO": 10658, "osis": 10659, "ĠGameObject": 10660, "Ġskip": 10661, "Ġcompetition": 10662, "_match": 10663, "lications": 10664, "_CONT": 10665, ".groupBox": 10666, "Ġals": 10667, "\"We": 10668, "_eq": 10669, "lan": 10670, "_search": 10671, "ĠMusic": 10672, "asis": 10673, "Ġbind": 10674, "ĠIsland": 10675, "rum": 10676, "(E": 10677, "Ġseat": 10678, "Video": 10679, "Ġack": 10680, "reek": 10681, "={()": 10682, "Ġrating": 10683, "Ġrestaurant": 10684, "DEX": 10685, "(buf": 10686, "pping": 10687, "uality": 10688, "Ġleague": 10689, "Ġfocused": 10690, "apon": 10691, "$data": 10692, "CLUD": 10693, "CLUDING": 10694, "Ġabsolute": 10695, "(query": 10696, "Ġtells": 10697, "Ang": 10698, "Ġcommunities": 10699, "Ġhonest": 10700, "oking": 10701, "Ġapart": 10702, "arity": 10703, "/$": 10704, "_module": 10705, "ĠEnc": 10706, ".an": 10707, ".Config": 10708, "Cre": 10709, "Ġshock": 10710, "ĠArab": 10711, "IENT": 10712, "/re": 10713, "Ġretrie": 10714, "ycler": 10715, "isa": 10716, "ĠOrgan": 10717, ".graph": 10718, "Ġí": 10719, "ĠBAS": 10720, "Enum": 10721, "Ġpossibly": 10722, "ÑĢÐ°Ð": 10723, "ĠJapanese": 10724, "Ġcraft": 10725, "ĠPlace": 10726, "Ġtalent": 10727, "Ġfunding": 10728, "Ġconfirmed": 10729, "Ġcycle": 10730, "/x": 10731, "GE": 10732, "Ġhearing": 10733, "Ġplants": 10734, "Ġmouth": 10735, "pages": 10736, "oria": 10737, "ĠRemove": 10738, "_total": 10739, "Ġod": 10740, "ollapse": 10741, "door": 10742, "Ġbought": 10743, "Ġaddr": 10744, "ARCH": 10745, "_dim": 10746, "dden": 10747, "Ġdecades": 10748, "REQUEST": 10749, "Ġversions": 10750, "fire": 10751, "Ġmoves": 10752, "fb": 10753, "Ġcoffee": 10754, ".connect": 10755, "ĠRow": 10756, "Ġschema": 10757, "Scope": 10758, "-Type": 10759, "Ġfighting": 10760, "Ġretail": 10761, "Ġmodified": 10762, "TF": 10763, "Files": 10764, "nie": 10765, "_command": 10766, "stone": 10767, "ĠÑĤ": 10768, "_thread": 10769, "Ġbond": 10770, "ĠDevelopment": 10771, "Ġpt": 10772, "FORM": 10773, "plet": 10774, "Ġidentified": 10775, "cpp": 10776, "Ġcoding": 10777, "oked": 10778, "ĠMaster": 10779, "IDTH": 10780, "Ġresidents": 10781, "redit": 10782, "ĠPhoto": 10783, "=-": 10784, "unte": 10785, "ateur": 10786, "_STATE": 10787, "ĠSing": 10788, "Ġsheet": 10789, ".val": 10790, "orse": 10791, "Ġhers": 10792, "Ġdetermined": 10793, "Common": 10794, "Ġwed": 10795, "_queue": 10796, "PH": 10797, "ĠAtl": 10798, "cred": 10799, "/LICENSE": 10800, "Ġmes": 10801, "Ġadvanced": 10802, ".java": 10803, ".Sh": 10804, "Go": 10805, "kill": 10806, "fp": 10807, "_settings": 10808, "Ġpal": 10809, "Ġtruck": 10810, "Ġcombined": 10811, "Ġ\"${": 10812, "ĠCorpor": 10813, "Ġjoined": 10814, "ĠJose": 10815, "ĠCup": 10816, "uns": 10817, "estival": 10818, "levision": 10819, "Ġbroken": 10820, "Ġmarriage": 10821, "ĠWestern": 10822, "Ġrepresents": 10823, "ĠTitle": 10824, "Ġss": 10825, ".Ass": 10826, "ongoose": 10827, "iento": 10828, "<>();Ċ": 10829, "Ġabsolutely": 10830, "Ġsmooth": 10831, "TERN": 10832, "ĠUnless": 10833, "Word": 10834, "Ġmerge": 10835, "igan": 10836, "ĠVol": 10837, "Ġnn": 10838, ".getId": 10839, "ĠÐ·": 10840, "Ġsexy": 10841, "Ġseeking": 10842, "Single": 10843, ".this": 10844, "Ġkom": 10845, "bound": 10846, ";\"": 10847, "ĠfontSize": 10848, "_df": 10849, "Ġinjury": 10850, "(H": 10851, "Ġissued": 10852, "_END": 10853, ":self": 10854, "Ġpatch": 10855, "Ġleaves": 10856, "Ġadopt": 10857, "FileName": 10858, "ãĢĲ": 10859, "Ġexecutive": 10860, "ĠByte": 10861, "]))Ċ": 10862, "Ġnu": 10863, "outing": 10864, "cluding": 10865, "-R": 10866, ".options": 10867, "Ġsubstant": 10868, "avax": 10869, "ĠBUT": 10870, "Ġtechnical": 10871, "Ġtwice": 10872, "ĠmÃ¡s": 10873, "Ġunivers": 10874, "yr": 10875, "Ġdrag": 10876, "ĠDC": 10877, "Ġsed": 10878, "Ġbot": 10879, "ĠPal": 10880, "ĠHall": 10881, "forcement": 10882, "Ġauch": 10883, ".mod": 10884, "notation": 10885, "_files": 10886, ".line": 10887, "_flag": 10888, "[name": 10889, "Ġresolution": 10890, "Ġbott": 10891, "(\"[": 10892, "ende": 10893, "(arr": 10894, "Free": 10895, "(@\"": 10896, "ĠDistrict": 10897, "PEC": 10898, ":-": 10899, "Picker": 10900, "ĠJo": 10901, "ĠĠĠĠĠĊ": 10902, "ĠRiver": 10903, "_rows": 10904, "Ġhelpful": 10905, "Ġmassive": 10906, "---Ċ": 10907, "Ġmeasures": 10908, "ĠRuntime": 10909, "Ġworry": 10910, "ĠSpec": 10911, "ĉD": 10912, "ãĢĳ": 10913, "Ġ){Ċ": 10914, "Ġworse": 10915, "(filename": 10916, "Ġlay": 10917, "Ġmagic": 10918, "ĠTheir": 10919, "oul": 10920, "stroy": 10921, "ĠWhere": 10922, "Ġsudden": 10923, "Ġdefe": 10924, "Ġbinding": 10925, "Ġflight": 10926, "ĠOnInit": 10927, "ĠWomen": 10928, "ĠPolicy": 10929, "Ġdrugs": 10930, "ishing": 10931, "('../": 10932, "ĠMel": 10933, "peat": 10934, "tor": 10935, "Ġproposed": 10936, "Ġstated": 10937, "_RES": 10938, "Ġeast": 10939, "ĠCONDITION": 10940, "_desc": 10941, "Ġwinning": 10942, "folio": 10943, "Mapper": 10944, "ĠPan": 10945, "ĠAnge": 10946, ".servlet": 10947, "Ġcopies": 10948, "LM": 10949, "Ġvm": 10950, "åį": 10951, "Ġdictionary": 10952, "Seg": 10953, "elines": 10954, "ĠSend": 10955, "Ġiron": 10956, "ĠFort": 10957, ".domain": 10958, "Ġdebate": 10959, "NotNull": 10960, "eq": 10961, "acher": 10962, "lf": 10963, "ĉfmt": 10964, "Ġlawy": 10965, "ÄŁ": 10966, "ĠMen": 10967, "Ġtrim": 10968, "(NULL": 10969, "Ġ!!": 10970, "Ġpad": 10971, "Ġfollows": 10972, "\"][\"": 10973, "requ": 10974, "ĠEp": 10975, ".github": 10976, "(img": 10977, "eto": 10978, "('\\": 10979, "Services": 10980, "umbnail": 10981, "_main": 10982, "pleted": 10983, "fortunately": 10984, "Ġwindows": 10985, "Ġplane": 10986, "ĠConnection": 10987, ".local": 10988, "uard": 10989, "}\\": 10990, "==\"": 10991, "andon": 10992, "ĠRoy": 10993, "west": 10994, "iginal": 10995, "emies": 10996, "itz": 10997, "'):Ċ": 10998, "ĠPeter": 10999, "Ġtough": 11000, "Ġreduced": 11001, "Ġcalculate": 11002, "Ġrapid": 11003, "customer": 11004, "Ġefficient": 11005, "Ġmedium": 11006, "Ġfell": 11007, ".ref": 11008, "ĠCas": 11009, "Ġfeedback": 11010, "Speed": 11011, "(output": 11012, "aje": 11013, "Ġcategories": 11014, "Ġfee": 11015, "};": 11016, "Ġdeleted": 11017, "reh": 11018, "Ġproof": 11019, "Desc": 11020, "Build": 11021, "Ġsides": 11022, ".ArrayList": 11023, "-%": 11024, "Ø±": 11025, ".match": 11026, "Ð»Ð¸": 11027, "Ġfeels": 11028, "Ġachieve": 11029, "Ġclim": 11030, "_ON": 11031, "ĠCD": 11032, "Ġteacher": 11033, "_current": 11034, "bn": 11035, "_PL": 11036, "isting": 11037, "Enable": 11038, "GEN": 11039, "Ġtv": 11040, "Ġsock": 11041, "Ġplays": 11042, "Ġdiscount": 11043, "ĠKE": 11044, "ĠDebug": 11045, "Fore": 11046, "ĠIraq": 11047, "Ġappearance": 11048, "Mon": 11049, "Ġstyled": 11050, "ĠHuman": 11051, "iot": 11052, "ĠHistory": 11053, "Ġsac": 11054, "ĠCollection": 11055, "Ġrecommended": 11056, ".Selected": 11057, "Ġorganizations": 11058, "Ġdiscovered": 11059, "cohol": 11060, "adas": 11061, "ĠThomas": 11062, "May": 11063, "Ġconserv": 11064, "Ġdomin": 11065, "ĠFollow": 11066, "ĠSection": 11067, "ĠThanks": 11068, "Username": 11069, "Ġrecipe": 11070, "Ġwonderful": 11071, ".sleep": 11072, "_if": 11073, "ĉĊĉĊ": 11074, "orno": 11075, "Ġru": 11076, "_target": 11077, ".\"\"": 11078, "à¦": 11079, "EventArgs": 11080, "Ġinputs": 11081, "Ġfif": 11082, "Ġvision": 11083, "cy": 11084, "ĠSeries": 11085, ")(((": 11086, "Ġtrading": 11087, "Ġmarker": 11088, "Begin": 11089, "Ġtypically": 11090, "Ġcauses": 11091, "dropdown": 11092, "_DEBUG": 11093, "Ġdetect": 11094, "country": 11095, "!\");Ċ": 11096, "ĉR": 11097, "appy": 11098, "Ġcref": 11099, "('<": 11100, "\"=>": 11101, "ĠLE": 11102, "reader": 11103, "Ġadministr": 11104, "Ãµ": 11105, "ucket": 11106, "Ġfashion": 11107, ".char": 11108, "izar": 11109, "Ġdisable": 11110, "Ġsuc": 11111, "ĠLive": 11112, "issue": 11113, "Ġmetadata": 11114, "flags": 11115, "ĠðŁ": 11116, "Ġcommitted": 11117, "Ġva": 11118, "Ġrough": 11119, "Ġ'''Ċ": 11120, "Ġhighlight": 11121, "_vars": 11122, "VO": 11123, "Ġencoding": 11124, "-Z": 11125, "_sign": 11126, "$(\"#": 11127, "Ġrain": 11128, "reatest": 11129, "ĠEND": 11130, "Selection": 11131, "Ġcandidates": 11132, "Ġsav": 11133, ".Empty": 11134, "Ġdecisions": 11135, "Ġcollabor": 11136, "ridge": 11137, "feed": 11138, "ression": 11139, "Ġpersons": 11140, "VM": 11141, "ega": 11142, "_BIT": 11143, "According": 11144, "acked": 11145, "Ġdollars": 11146, "_loss": 11147, "ĠCost": 11148, "}\"Ċ": 11149, "Notification": 11150, "Ġprostit": 11151, "Ġauthority": 11152, ".rec": 11153, "Ġspokes": 11154, "ĠToday": 11155, "istant": 11156, "ĠHead": 11157, "âĢĿ.": 11158, "ertainment": 11159, "cean": 11160, "culate": 11161, "Ġven": 11162, "However": 11163, "_arr": 11164, "Ġtokens": 11165, "Graph": 11166, "ĠJud": 11167, "ĠVirgin": 11168, "ĠSerial": 11169, "unning": 11170, "Mutable": 11171, "agers": 11172, ".csv": 11173, "Ġdeveloping": 11174, "Ġinstructions": 11175, "Ġpromise": 11176, "Ġrequested": 11177, "_encode": 11178, "/\"": 11179, "ĠIcon": 11180, "uilt": 11181, "-day": 11182, "Ġintelligence": 11183, ".IS": 11184, "ĠObservable": 11185, "ĠHard": 11186, "Bool": 11187, "idential": 11188, ".Anchor": 11189, "Ġselling": 11190, "CI": 11191, "AGES": 11192, "tle": 11193, "bur": 11194, "UFFER": 11195, "RY": 11196, "Ġbigger": 11197, "Ġrat": 11198, "Ġfamous": 11199, "Ġtypename": 11200, "Ġexplained": 11201, "}}Ċ": 11202, "Ġnuclear": 11203, "-N": 11204, "Ġcrisis": 11205, "ĠEnter": 11206, "Ġanswers": 11207, "/${": 11208, "/pl": 11209, "Ġsequ": 11210, "_next": 11211, "mask": 11212, "Ġstanding": 11213, "Ġplenty": 11214, "ĠCross": 11215, "ĉret": 11216, "dro": 11217, "ĠCast": 11218, "=true": 11219, "ĠChris": 11220, "icio": 11221, "ĠMike": 11222, "Decimal": 11223, "addComponent": 11224, "Len": 11225, "Ġcock": 11226, "Ġ#{": 11227, "URN": 11228, "<tr": 11229, "Ġauthorities": 11230, "Resources": 11231, "-H": 11232, "Bottom": 11233, "_qu": 11234, "puter": 11235, "esterday": 11236, "Dispatch": 11237, "since": 11238, "Ġfamiliar": 11239, ",i": 11240, "VC": 11241, "Ġment": 11242, ",C": 11243, "Ġfreedom": 11244, "Ġroutes": 11245, "ĠBuy": 11246, "Ġcommands": 11247, "Ġmesh": 11248, "/C": 11249, "ĠSettings": 11250, "-style": 11251, "Ġwitness": 11252, "Ġcle": 11253, "Ġunion": 11254, "efault": 11255, "aret": 11256, "Ġthoughts": 11257, "Ġ----": 11258, "_process": 11259, "_us": 11260, "ingly": 11261, "UES": 11262, "Touch": 11263, "ĠÐ¼": 11264, "_open": 11265, "ĠVec": 11266, "Ġreward": 11267, ".Click": 11268, "/:": 11269, "Ġnie": 11270, "Changes": 11271, "Month": 11272, "ï¼Ł": 11273, "Ġexecution": 11274, "Ġbeach": 11275, "(Integer": 11276, "ĉa": 11277, "/'": 11278, ".FontStyle": 11279, "Ġabort": 11280, "ĠSingle": 11281, "(isset": 11282, "Ġdp": 11283, "Ġ}}</": 11284, "ĠMa": 11285, ".Rows": 11286, "ĠPet": 11287, "%)": 11288, "rand": 11289, "éĢ": 11290, "Rule": 11291, "Ġhel": 11292, "RITE": 11293, "Ġquiet": 11294, "Ġratio": 11295, "ĠCONDITIONS": 11296, "osoph": 11297, "ĠIL": 11298, "Ġadvent": 11299, "cap": 11300, ";</": 11301, "ĠUSB": 11302, "Driver": 11303, "Ġours": 11304, "ĠJohnson": 11305, ".K": 11306, "_delete": 11307, ".q": 11308, "ĉstr": 11309, "/common": 11310, "ĉstring": 11311, "ĠPDF": 11312, "acts": 11313, ".Action": 11314, "ĠQuery": 11315, ".response": 11316, "ĠGirl": 11317, "Ġprocesses": 11318, "<Integer": 11319, "imo": 11320, "Ġadds": 11321, "Ġentirely": 11322, "Ġwash": 11323, "Ġanimated": 11324, "Ġprofit": 11325, "encing": 11326, "/S": 11327, "ĠSym": 11328, "Ġmanual": 11329, "Download": 11330, "Ġ(!$": 11331, "Ġmotion": 11332, "webpack": 11333, "-bottom": 11334, "Ġgratuit": 11335, "PG": 11336, "(:,": 11337, "Ġera": 11338, "Ġho": 11339, "ĠJim": 11340, "quir": 11341, "ĠBASIS": 11342, "Ã¡n": 11343, "DER": 11344, "Ġexpensive": 11345, "_co": 11346, "Bounds": 11347, "Well": 11348, "ĠDemocratic": 11349, "ĠâĨĴ": 11350, ".Rem": 11351, "_SY": 11352, "names": 11353, "ĠVi": 11354, "Ġisinstance": 11355, "\\\">": 11356, "Ġ*=": 11357, "ĠPS": 11358, "Ġdangerous": 11359, "[p": 11360, "OME": 11361, "Other": 11362, "ĠStringBuilder": 11363, "Points": 11364, "heading": 11365, "Ġcurrency": 11366, "Ġpercentage": 11367, "_API": 11368, "Ġclassic": 11369, "thead": 11370, "ĠMO": 11371, "FE": 11372, "Idx": 11373, "await": 11374, "ĠÃ¨": 11375, "Ġaccident": 11376, "Ġvariant": 11377, "Ġmyst": 11378, "ĠLand": 11379, "ĠBre": 11380, "Ġharm": 11381, "ĠAcc": 11382, "Ġcharged": 11383, "iones": 11384, "Visibility": 11385, "arry": 11386, "ĠLanguage": 11387, "Ġwalking": 11388, "\".ĊĊ": 11389, "ifer": 11390, "Ġleadership": 11391, ".From": 11392, "ynam": 11393, "Ġtimestamp": 11394, "ipt": 11395, "ĠHas": 11396, "REFER": 11397, "ĠIts": 11398, "Ġlistener": 11399, "UTE": 11400, "_description": 11401, "Ġexperiences": 11402, "Ġcreates": 11403, "RS": 11404, "cart": 11405, "black": 11406, "Ġchoices": 11407, "war": 11408, "Ġ'''": 11409, "Ġordered": 11410, "Ġevening": 11411, "Ġpil": 11412, "Ġtun": 11413, "ĠBad": 11414, "(app": 11415, "random": 11416, "Ġexplicit": 11417, "Ġarrived": 11418, "Ġfly": 11419, "Ġeconom": 11420, "-mail": 11421, "Ġlists": 11422, "Ġarchitect": 11423, "ĠPay": 11424, "Ġds": 11425, "ĠSol": 11426, "Ġvehicles": 11427, "Hz": 11428, "-com": 11429, "Ġking": 11430, "_equal": 11431, "ĠHelp": 11432, "Ġabuse": 11433, "--;Ċ": 11434, "Ġextr": 11435, "Ġchemical": 11436, "ä¿": 11437, "Ġorient": 11438, "Ġbreath": 11439, "ĠSpace": 11440, "(element": 11441, "wait": 11442, "DED": 11443, "igma": 11444, "Ġentr": 11445, "Ġsob": 11446, "-name": 11447, "Ġaffected": 11448, "ika": 11449, "Ġcoal": 11450, "_work": 11451, "Ġhundreds": 11452, "Ġpolitics": 11453, "subject": 11454, "Ġconsumer": 11455, "ANGE": 11456, "Ġrepeated": 11457, "Send": 11458, "Ġ#[": 11459, "Ġprotocol": 11460, "Ġleads": 11461, "useum": 11462, "Every": 11463, "Import": 11464, "(count": 11465, "Ġchallenges": 11466, "Ġnovel": 11467, "Ġdepart": 11468, "bits": 11469, ".Current": 11470, "Ġ`${": 11471, "oting": 11472, "(\\": 11473, "Ġcreative": 11474, "Ġbuff": 11475, "Ġintroduced": 11476, "usic": 11477, "modules": 11478, "Are": 11479, "-doc": 11480, "language": 11481, "_cache": 11482, "Ġtod": 11483, "?></": 11484, "omething": 11485, "Ġhun": 11486, "åº": 11487, "aters": 11488, "Intent": 11489, "Ġimplemented": 11490, "ĠCase": 11491, "Children": 11492, "Ġnotification": 11493, "Renderer": 11494, "Wrapper": 11495, "Objects": 11496, "tl": 11497, ".Contains": 11498, "Plugin": 11499, ".row": 11500, "Ġforg": 11501, "Ġpermit": 11502, "Ġtargets": 11503, "ĠIF": 11504, "Ġtip": 11505, "sex": 11506, "Ġsupports": 11507, "Ġfold": 11508, "photo": 11509, "},čĊ": 11510, "Ġgoogle": 11511, "$('#": 11512, "Ġsharing": 11513, "Ġgoods": 11514, "vs": 11515, "ĠDan": 11516, "Rate": 11517, "ĠMartin": 11518, "Ġmanner": 11519, "lie": 11520, ".The": 11521, "Internal": 11522, "ĠCONTR": 11523, "Mock": 11524, "RIGHT": 11525, "Ġ'{": 11526, "Ġcontrols": 11527, "Mat": 11528, "Ġmand": 11529, "Ġextended": 11530, "Ok": 11531, "Ġembed": 11532, "Ġplanet": 11533, "ĠNon": 11534, "-ch": 11535, ")\",": 11536, "epar": 11537, "Ġbelieved": 11538, "ĠEnvironment": 11539, "ĠFriend": 11540, "-res": 11541, "Ġhandling": 11542, "nic": 11543, "-level": 11544, "scri": 11545, "Xml": 11546, "BE": 11547, "ungen": 11548, "Ġalter": 11549, "[idx": 11550, "Pop": 11551, "cam": 11552, "Ġ(((": 11553, "Ġshipping": 11554, "Ġbattery": 11555, "iddleware": 11556, "MC": 11557, "Ġimpl": 11558, "otation": 11559, "ĠLab": 11560, "<form": 11561, "ĉname": 11562, "ĠGames": 11563, "ray": 11564, "Extra": 11565, "Two": 11566, "(player": 11567, "ĠLes": 11568, "Â°": 11569, "Ġcharset": 11570, "Ġjourney": 11571, "eting": 11572, "æĺ": 11573, "âĶ": 11574, "çĶ¨": 11575, "Ġdin": 11576, "Ġperman": 11577, "Ġsolve": 11578, "Ġlaunched": 11579, "Ġnine": 11580, "Ġsending": 11581, "Ġtelling": 11582, ".password": 11583, "ĠMatrix": 11584, "eric": 11585, "Ġgrab": 11586, ".u": 11587, "ĠLibrary": 11588, "Ġdebt": 11589, "INK": 11590, ".findViewById": 11591, "Ġfrequency": 11592, ".ad": 11593, "_TEST": 11594, "Ġnegot": 11595, "ĠAfrican": 11596, "sender": 11597, "Å¡": 11598, "Global": 11599, "Ġexperts": 11600, "++)čĊ": 11601, "Ġdepending": 11602, "gray": 11603, "Ġjudge": 11604, "Ġsentence": 11605, "losure": 11606, "Ac": 11607, "Ġtrace": 11608, "Edge": 11609, "Ġfriendly": 11610, "Ġconcerned": 11611, "blog": 11612, "Ġclaimed": 11613, "}'": 11614, "integer": 11615, "_tree": 11616, "ĉcontinue": 11617, "xi": 11618, "Ġaccepted": 11619, "_one": 11620, "ĠEducation": 11621, "ublished": 11622, "gon": 11623, "appoint": 11624, "outs": 11625, "Ġmining": 11626, "Ġsongs": 11627, "Ġherself": 11628, "Ġgranted": 11629, "Ġpassion": 11630, "ĠLake": 11631, "Ġloan": 11632, "uent": 11633, "chant": 11634, "Ġdetailed": 11635, "except": 11636, "_cmd": 11637, "ĠHE": 11638, "Related": 11639, "zt": 11640, "'},Ċ": 11641, "Ġspecifically": 11642, "Static": 11643, "Ġcarried": 11644, "ANS": 11645, "\\\":": 11646, "Created": 11647, "Ġcul": 11648, "]-": 11649, "_api": 11650, "FP": 11651, "Ġsitting": 11652, "Ġ\"\")": 11653, "ĉgoto": 11654, "ĠEqu": 11655, "Ġassault": 11656, "kins": 11657, "ancer": 11658, "ogen": 11659, "Ġvoters": 11660, "ĠProt": 11661, "Descriptor": 11662, "ãĥ¼": 11663, ".Assert": 11664, "bsites": 11665, "oster": 11666, "-menu": 11667, "Ġarms": 11668, ".Client": 11669, ".background": 11670, "avity": 11671, "Ġvul": 11672, "_MASK": 11673, "Ġhousing": 11674, "Ġbear": 11675, "_iter": 11676, "pired": 11677, "Ġmarkets": 11678, "ĠStudent": 11679, "Ġticket": 11680, "Ġmillions": 11681, "flater": 11682, ")=": 11683, "Ġrecover": 11684, "ĠForce": 11685, "ĠBoth": 11686, "Ġvictim": 11687, "ĠDisc": 11688, "report": 11689, "Ġfourth": 11690, "ĠAssembly": 11691, "/user": 11692, "NullOr": 11693, "textarea": 11694, "Ġath": 11695, "Ġ([": 11696, "Ġchannels": 11697, "ĠJustice": 11698, "choice": 11699, "LOBAL": 11700, "exec": 11701, "emale": 11702, "Ġelem": 11703, "_le": 11704, "Ġresponsibility": 11705, "ĠTw": 11706, "ICATION": 11707, "Ġelseif": 11708, "Ġfo": 11709, "asts": 11710, "Ġtreated": 11711, "sen": 11712, "ĠVict": 11713, "sumer": 11714, "_BASE": 11715, "Ġast": 11716, ">{{": 11717, "ĠResource": 11718, "ĠStandard": 11719, "ĠPrem": 11720, "updated": 11721, "ivalent": 11722, "Ġassets": 11723, "_temp": 11724, "Ġinterests": 11725, "Ġhardware": 11726, "ĠRom": 11727, "ĠShare": 11728, "Ġ''Ċ": 11729, "Ġ*,": 11730, "ĠTake": 11731, "ĠImages": 11732, "_CHECK": 11733, "(typeof": 11734, "ĠJun": 11735, "\\<^": 11736, "Ġliqu": 11737, "Ġworst": 11738, "ymbols": 11739, "ĉĉĉĠĠĠ": 11740, "Ġdrivers": 11741, "ĠDocument": 11742, "eno": 11743, "ĠTechnology": 11744, "Ġapproved": 11745, "umps": 11746, "Ġsnow": 11747, "formance": 11748, "_ASSERT": 11749, "uits": 11750, "ÙĨ": 11751, "Ġdifferences": 11752, ".Visible": 11753, "ĉĉĉčĊ": 11754, "ĠPs": 11755, "_fetch": 11756, "Ġtodo": 11757, ".',Ċ": 11758, "Ġsel": 11759, "urers": 11760, "invalid": 11761, "Ġtweet": 11762, "VEL": 11763, "Ġresearchers": 11764, "Ġsprintf": 11765, "ĠRO": 11766, "Ġpel": 11767, ".Trans": 11768, "Ġillegal": 11769, "dialog": 11770, "smarty": 11771, "lg": 11772, "_MIN": 11773, "Ġhero": 11774, "final": 11775, "Ġpp": 11776, ".Le": 11777, "Ġci": 11778, "ĉRT": 11779, "Ġsuggested": 11780, "pdf": 11781, "aching": 11782, "ĠRo": 11783, "ĠProperties": 11784, "ĠSi": 11785, "Ġbuying": 11786, "Ġmu": 11787, "Ġlands": 11788, "ifiers": 11789, "ĠFILE": 11790, "ROUP": 11791, "Ġholder": 11792, "ĠSon": 11793, "Ġsympt": 11794, ".route": 11795, ")?": 11796, "Ġargc": 11797, "Ġfort": 11798, "Ġcasino": 11799, "_category": 11800, "Ġforum": 11801, "prefix": 11802, "apture": 11803, "Tube": 11804, "ems": 11805, "imize": 11806, "Ġnue": 11807, "aus": 11808, "course": 11809, "ATOR": 11810, "()),": 11811, "Advertis": 11812, "INGS": 11813, "Ġacknow": 11814, "ĠKorea": 11815, "pling": 11816, "Ġworker": 11817, "PLIED": 11818, "hal": 11819, "ĠRichard": 11820, "Elements": 11821, "ĉĉĉĠ": 11822, "star": 11823, "Ġrelationships": 11824, "Ġcheap": 11825, "ACH": 11826, "ĠXML": 11827, ",&": 11828, "ĠLouis": 11829, "Ġride": 11830, "_FAIL": 11831, "Ġchunk": 11832, "[s": 11833, "_OUT": 11834, "Ġchosen": 11835, "_[": 11836, "/(": 11837, "ĠJeff": 11838, "_sl": 11839, "priv": 11840, "ĠCanadian": 11841, "Ġunable": 11842, "_FLAG": 11843, "Ġnos": 11844, "high": 11845, "Ġlift": 11846, "fun": 11847, "(){": 11848, "elly": 11849, "yclerView": 11850, "_as": 11851, "_LIST": 11852, "Ġradi": 11853, ".getValue": 11854, "ĠAngeles": 11855, "ĠSpan": 11856, "_instance": 11857, "itors": 11858, "Ġmigration": 11859, "AK": 11860, "Oh": 11861, "Â®": 11862, ".selected": 11863, "ĠGT": 11864, "Ġadvance": 11865, "ĠStyle": 11866, ".DataGridView": 11867, "ection": 11868, "Ñİ": 11869, "pio": 11870, "rog": 11871, "Ġshopping": 11872, "ĠRect": 11873, "Illuminate": 11874, "OU": 11875, "ĉarray": 11876, "Ġsubstantial": 11877, "Ġpregn": 11878, "Ġpromote": 11879, "IEW": 11880, ".Layout": 11881, "Ġsigns": 11882, "/.": 11883, "Ġletters": 11884, "Board": 11885, "ctrl": 11886, "\"\\": 11887, "ĠJones": 11888, "Ġvertex": 11889, "Ġja": 11890, "Ġaffili": 11891, "Ġwealth": 11892, "ĉdefault": 11893, "Ġsignificantly": 11894, "Ġec": 11895, "Ġxs": 11896, "actual": 11897, ".per": 11898, "_step": 11899, "anvas": 11900, "mac": 11901, "Ġtransl": 11902, "Iterator": 11903, "Ġoch": 11904, "agnostic": 11905, "ĠDuring": 11906, "ĠDEFAULT": 11907, "Ġtill": 11908, "Ġsignature": 11909, "Ġbird": 11910, "ĠOl": 11911, "ĠIr": 11912, "HS": 11913, "avatar": 11914, "ESSAGE": 11915, "Ġelev": 11916, "Ġmt": 11917, "ĠNav": 11918, "Ġrelax": 11919, "Ġplate": 11920, "ITEM": 11921, "(date": 11922, ".not": 11923, "Ġgrade": 11924, "Ġ}),Ċ": 11925, "?\"ĊĊ": 11926, "iences": 11927, "High": 11928, "ĠDIS": 11929, "disabled": 11930, "QUI": 11931, "Ġnoise": 11932, "aux": 11933, "ĠUP": 11934, "osa": 11935, "Ġvoc": 11936, "Ġ))": 11937, "ocom": 11938, "_OFF": 11939, "ĠDb": 11940, "Lock": 11941, ".eclipse": 11942, ",d": 11943, "ĠDraw": 11944, "Ġ\"(": 11945, "Ġvisited": 11946, "ĠâĪ": 11947, "Ġsucceed": 11948, "Ġimpossible": 11949, "aire": 11950, "ĠTurn": 11951, "Ġdish": 11952, "FG": 11953, "Ġsensor": 11954, "ANN": 11955, "aba": 11956, "Ġsurg": 11957, "]);čĊ": 11958, "Ġfp": 11959, "_an": 11960, "-J": 11961, "-G": 11962, "ĠJob": 11963, "Convert": 11964, "ĠKEY": 11965, "Ġauthors": 11966, "_server": 11967, "\\r": 11968, "Ġ-*-": 11969, "flex": 11970, "Ġsoc": 11971, "Ret": 11972, "Ġsalt": 11973, "ĠâĢ¦ĊĊ": 11974, "ĠClear": 11975, "(page": 11976, "-danger": 11977, "Ġrooms": 11978, "conv": 11979, "#{": 11980, ".op": 11981, "ĠArea": 11982, "_SC": 11983, "hen": 11984, "Ġbegins": 11985, "-y": 11986, "Ġexcited": 11987, "Ġignored": 11988, "Ġbonus": 11989, "student": 11990, "ĠMember": 11991, "Ġrelatively": 11992, "ĠLow": 11993, "ĠProdu": 11994, "ateway": 11995, "posure": 11996, "Ġthick": 11997, "aniel": 11998, "(view": 11999, "ĠCrush": 12000, "Extension": 12001, "Il": 12002, "eed": 12003, "LOC": 12004, ".im": 12005, ".Items": 12006, "Ġconflict": 12007, ".prevent": 12008, "ĠonCreate": 12009, "uv": 12010, "iser": 12011, "Ġwave": 12012, "Mar": 12013, "ĠCommunity": 12014, "iche": 12015, "ĠNothing": 12016, "[m": 12017, "ĠLee": 12018, "riends": 12019, "Ã¨re": 12020, "!!!": 12021, "anz": 12022, ".result": 12023, "ĠSK": 12024, "_PARAM": 12025, "Ġdemocr": 12026, "BackColor": 12027, ".exists": 12028, "\"It": 12029, "(options": 12030, "razy": 12031, "aser": 12032, "\\Database": 12033, "alendar": 12034, "_ass": 12035, ";}Ċ": 12036, "vertex": 12037, "inecraft": 12038, "Warning": 12039, "argo": 12040, "Ġactor": 12041, "ĠInstead": 12042, "ĠUsing": 12043, "Self": 12044, "@interface": 12045, "Ġspeaking": 12046, "ĠParis": 12047, "ĠLICENSE": 12048, ".node": 12049, "ĠFood": 12050, "EIF": 12051, "ĠBi": 12052, ".Start": 12053, "ĠIB": 12054, "Ġuniversity": 12055, "ĠHeader": 12056, ".product": 12057, "Copy": 12058, "etc": 12059, "rical": 12060, "Ġ>>>": 12061, "books": 12062, "Ġalgorithm": 12063, "Ġ'__": 12064, "(javax": 12065, "Ġnumerous": 12066, "Share": 12067, "Have": 12068, "Ġrecru": 12069, "Ġprove": 12070, ".substring": 12071, "health": 12072, "ÐµÐ»": 12073, "Ġdecimal": 12074, "Ġcommission": 12075, "scription": 12076, "xC": 12077, "Ġsummary": 12078, "atted": 12079, "Ġcloser": 12080, "finished": 12081, "()){Ċ": 12082, "ĠWood": 12083, "_fields": 12084, "ku": 12085, "_items": 12086, "Flag": 12087, "Ġconfidence": 12088, "ĠFederal": 12089, "dux": 12090, "Ġcompat": 12091, "Ġvertical": 12092, "Ð¹": 12093, "Ã¨s": 12094, ";\">Ċ": 12095, "_manager": 12096, "()))Ċ": 12097, "IDE": 12098, ":\",": 12099, "__Ċ": 12100, "ĠWay": 12101, "ÑĪ": 12102, "Temp": 12103, "ĠSTR": 12104, "ritten": 12105, "Sync": 12106, "ĠAV": 12107, "ĠCEO": 12108, "ĠGuid": 12109, "Ġenvironmental": 12110, "Ġcorresponding": 12111, "ĉconsole": 12112, "Ġjustice": 12113, "ĠJS": 12114, "Ġlived": 12115, "gar": 12116, "ĠGraph": 12117, "ĠStat": 12118, "ĠiPhone": 12119, ".al": 12120, "ĠHD": 12121, "Ġoccur": 12122, "Ġthreshold": 12123, "Ġonclick": 12124, "REG": 12125, ".GraphicsUnit": 12126, "Meta": 12127, "Å¾": 12128, "Ġcum": 12129, ".gnu": 12130, "Ã«": 12131, "Ġobtained": 12132, "Ġcomplaint": 12133, "Ġeating": 12134, "Ġtar": 12135, "_task": 12136, "Ġopts": 12137, "(to": 12138, "Pass": 12139, "Ġplastic": 12140, "tility": 12141, "ĠWin": 12142, ".preventDefault": 12143, "pile": 12144, "ĠGar": 12145, "Ġquantity": 12146, "_last": 12147, "Ġgreatest": 12148, "Dao": 12149, "_DIS": 12150, "ĠUsed": 12151, "ĠHP": 12152, "riting": 12153, "SION": 12154, "blue": 12155, "domain": 12156, "Ġscores": 12157, "Normal": 12158, "_admin": 12159, "ĠASSERT": 12160, "Then": 12161, "***": 12162, "dist": 12163, "lon": 12164, "Ġhate": 12165, "shal": 12166, "ImageView": 12167, "database": 12168, "Ġpand": 12169, "Ġlogic": 12170, "=false": 12171, "bg": 12172, "ĠConfiguration": 12173, "Ġnur": 12174, "OG": 12175, "Ġmarried": 12176, ":+": 12177, "Ġdropped": 12178, "Ġregistration": 12179, "Ð¾Ð¼": 12180, "ultiple": 12181, "izers": 12182, "shape": 12183, ".copy": 12184, "Ġwearing": 12185, "ĠCath": 12186, "Ġdedicated": 12187, "Ġ...Ċ": 12188, "Ġadvoc": 12189, "ĠFamily": 12190, "Ġstatements": 12191, "ematic": 12192, "ampionship": 12193, "Ġmotiv": 12194, "ĠHave": 12195, "Ġblow": 12196, "Job": 12197, "cert": 12198, "_vector": 12199, "install": 12200, "ĠCOPY": 12201, "embed": 12202, "DIR": 12203, "ĠSpring": 12204, "Ġexhib": 12205, "cdn": 12206, "ĠComment": 12207, "ĠOptional": 12208, ".player": 12209, "ĠDark": 12210, "(pos": 12211, "ĠShould": 12212, "Ġcentre": 12213, "ĠGuard": 12214, "Ã³w": 12215, "Ġtrouble": 12216, "ENER": 12217, "(unsigned": 12218, "_service": 12219, "Ġns": 12220, "uling": 12221, "ĠMexico": 12222, "ĠNY": 12223, "mysql": 12224, "Ġlic": 12225, "åľ": 12226, "Mr": 12227, "-fl": 12228, "ĠCustomer": 12229, "idi": 12230, "Ġ?>ĊĊ": 12231, "rible": 12232, "ĠÐ¿ÑĢ": 12233, "Ġsizes": 12234, "_STRING": 12235, "validation": 12236, "ĠJon": 12237, "(Http": 12238, "addClass": 12239, "Nodes": 12240, "Ġfragment": 12241, "Ġspoke": 12242, "Ġwaste": 12243, "Join": 12244, "Ġillustr": 12245, "eli": 12246, "cient": 12247, "Ġaid": 12248, "Ġprosec": 12249, "'){Ċ": 12250, "Ġpassing": 12251, "Ġfaces": 12252, "Shape": 12253, "_Z": 12254, "iti": 12255, "Ġalle": 12256, "Ġrobot": 12257, "ĠĠĠĠĠĠĠĊ": 12258, "ĠSpe": 12259, "Ġreceiving": 12260, "ĠDetails": 12261, "Ġ\")": 12262, "mg": 12263, "_REF": 12264, "Ġcomparison": 12265, "*,": 12266, "ĠFound": 12267, "_session": 12268, "(U": 12269, "/F": 12270, "Ġxxx": 12271, "Network": 12272, "ders": 12273, "Ġcapture": 12274, "Ġcorre": 12275, "ĠLtd": 12276, "ĠAdv": 12277, "[@": 12278, "Ġclip": 12279, "Mill": 12280, "ĠProfile": 12281, "Ġendif": 12282, "Ġoblig": 12283, "describe": 12284, ".element": 12285, "riterion": 12286, "LD": 12287, "ered": 12288, "Ġfavour": 12289, "score": 12290, "ĠFilter": 12291, "attributes": 12292, "Ġchecks": 12293, "Inflater": 12294, "ĠPlus": 12295, "Ġscientific": 12296, "Ġprivacy": 12297, "Head": 12298, "Ġfeat": 12299, "Ġdegrees": 12300, "ĠPale": 12301, ";\">": 12302, "Ġfilms": 12303, "ĠAudio": 12304, "ĠTag": 12305, "ĠEnergy": 12306, "itar": 12307, "parator": 12308, "Ġfellow": 12309, "Ġevt": 12310, "ĠTri": 12311, "ĠDAM": 12312, "cloud": 12313, "ĠPassword": 12314, "ĠDemocrats": 12315, "ĠAcad": 12316, "$lang": 12317, "Ġreb": 12318, "())ĊĊ": 12319, "Ð½Ñĭ": 12320, "ĠBur": 12321, "readcr": 12322, "Ġhex": 12323, "Console": 12324, "ctl": 12325, "ousel": 12326, "ĠWilliam": 12327, "Ġaz": 12328, "_PORT": 12329, "Ġpractices": 12330, "Ġanywhere": 12331, "ĠPosition": 12332, "Ġ->Ċ": 12333, "iams": 12334, ".username": 12335, "placeholder": 12336, "Ġoder": 12337, "ĠSecretary": 12338, "ĠiT": 12339, "mond": 12340, "events": 12341, "?âĢĿ": 12342, ".Sub": 12343, "Ġattached": 12344, "ĠnÃ£o": 12345, "Ġestate": 12346, ".action": 12347, "Ġfigures": 12348, "Ġ});čĊ": 12349, "Ġsubscri": 12350, ".tag": 12351, "nam": 12352, ".plot": 12353, "noon": 12354, "liament": 12355, "Character": 12356, ".tab": 12357, "Ġwinter": 12358, "ĠVariable": 12359, "Ġtrees": 12360, "Ġproud": 12361, "(V": 12362, "_load": 12363, "Ġhier": 12364, "ĠEcon": 12365, "Ġfd": 12366, "Ġvictims": 12367, "Rest": 12368, "iana": 12369, "Ġfake": 12370, ".Println": 12371, "Ġstrlen": 12372, "Ġsad": 12373, "Ġble": 12374, "Prot": 12375, "Ġbuttons": 12376, "Ġtelevision": 12377, "Ġlogo": 12378, "extension": 12379, "ĉj": 12380, "stein": 12381, "aciones": 12382, "Ġ\"\"\"ĊĊ": 12383, "Ġsimp": 12384, "Ġrecorded": 12385, "Ġbrings": 12386, "Ġprincipal": 12387, "Ġfees": 12388, "(source": 12389, "kdir": 12390, "Ġutils": 12391, "Ġcorrectly": 12392, "fil": 12393, "Ġwel": 12394, "Pair": 12395, "-button": 12396, "scale": 12397, "verify": 12398, "[c": 12399, "Ġ---": 12400, "Ġescape": 12401, "ikes": 12402, "LowerCase": 12403, "ician": 12404, "Ġchapter": 12405, "ĠTYPE": 12406, "Ġshadow": 12407, "Ġawesome": 12408, "WE": 12409, "elif": 12410, "Ġlambda": 12411, "Ġdistinct": 12412, "Ġbare": 12413, "-off": 12414, "Ġcolour": 12415, ".appendChild": 12416, "olec": 12417, "aga": 12418, ".fill": 12419, "ĉsuper": 12420, "Ġadj": 12421, "(position": 12422, ".getItem": 12423, "Short": 12424, "Ġtotally": 12425, "VD": 12426, "ĠTre": 12427, "_ep": 12428, "vements": 12429, "ĠSolution": 12430, "Ġfundament": 12431, "Follow": 12432, "Ġfacility": 12433, "Ġhappening": 12434, "OF": 12435, ".textBox": 12436, "Span": 12437, "ĠÂ«": 12438, "iden": 12439, "Ġexceed": 12440, "(parent": 12441, "Ġcp": 12442, "ç»": 12443, "Ġhasn": 12444, "Ġpri": 12445, "Ġconsequ": 12446, "nen": 12447, "ĠINTO": 12448, "Ignore": 12449, "ĠFuture": 12450, "Ġcarbon": 12451, "ĠSteel": 12452, "fmt": 12453, "okie": 12454, "Ġspl": 12455, "(title": 12456, "-info": 12457, "Ġdeals": 12458, "Ġfixture": 12459, "ea": 12460, "Div": 12461, "Ġtested": 12462, "_return": 12463, ")ĊĊĊĊ": 12464, "upported": 12465, "ĠCook": 12466, "Ġpaying": 12467, "ĠIll": 12468, "Ġarrested": 12469, "ĠPrime": 12470, "_callback": 12471, ">,Ċ": 12472, "driver": 12473, "Once": 12474, "abb": 12475, "_bytes": 12476, "ĠSets": 12477, "(Object": 12478, "Ġcc": 12479, "Ġshell": 12480, "alo": 12481, ");//": 12482, "(log": 12483, "ctors": 12484, ")</": 12485, "Ġneighborhood": 12486, "ailability": 12487, "vol": 12488, "Ġyouth": 12489, "Ġtechniques": 12490, "ĠSchema": 12491, "uh": 12492, "mente": 12493, "Ġrepository": 12494, "imm": 12495, "Ġcookie": 12496, "JS": 12497, "ovies": 12498, ":{": 12499, "Complete": 12500, "Since": 12501, "Ġlaugh": 12502, "_BO": 12503, "enable": 12504, "ĠDoes": 12505, "ĠWalk": 12506, "what": 12507, "kes": 12508, "Ġmultip": 12509, "iments": 12510, "eur": 12511, "Ġvictory": 12512, "Generator": 12513, "ĠMos": 12514, "rovers": 12515, "Ġcompute": 12516, "Ġproviders": 12517, "ĠMedic": 12518, "LP": 12519, "_CONFIG": 12520, "Ġveter": 12521, "sters": 12522, "_window": 12523, "umeric": 12524, "ĉĉĉĉĉĊ": 12525, ".Response": 12526, "Ġreplaced": 12527, ".root": 12528, "-free": 12529, "-container": 12530, "Ġmatching": 12531, "ĠEditor": 12532, "=${": 12533, "ĠSaf": 12534, "Ġsind": 12535, "(buffer": 12536, "åĩ": 12537, ".edu": 12538, ")];Ċ": 12539, "ĠNFL": 12540, "aya": 12541, "Ġdogs": 12542, "Ġdesire": 12543, "ĠMiddle": 12544, "Cart": 12545, "Theme": 12546, "Ġmob": 12547, "Ġdisplayed": 12548, "igit": 12549, "Ġadults": 12550, "\"\"\"": 12551, "Ġdelivered": 12552, "visible": 12553, "\":{Ċ": 12554, "<<<": 12555, "ĠGO": 12556, "scroll": 12557, "xE": 12558, "Ġassigned": 12559, "ĠBool": 12560, "Ġwp": 12561, "Ġcombat": 12562, "ĠHaw": 12563, ".-": 12564, "Ġsupporting": 12565, ".Content": 12566, "ircraft": 12567, "Ġspin": 12568, "ĠCR": 12569, ".my": 12570, "à¥": 12571, "tpl": 12572, "Ġspaces": 12573, "?,": 12574, "ĠSyria": 12575, "Ġpatterns": 12576, "-box": 12577, "Ġframework": 12578, "/%": 12579, "(long": 12580, "Ġteaching": 12581, "ARNING": 12582, "_keys": 12583, "Ġtables": 12584, "UNC": 12585, "inations": 12586, "-weight": 12587, "radio": 12588, "ĠPac": 12589, ".server": 12590, ".CharField": 12591, "ring": 12592, "Ġquote": 12593, "anna": 12594, "Ġwerden": 12595, "Ġcream": 12596, "Ġmachines": 12597, "-k": 12598, "Ġstim": 12599, "ĠStock": 12600, "rick": 12601, "Ġimportance": 12602, "rx": 12603, "Ãµes": 12604, "ÙĪ": 12605, "Ġstroke": 12606, "agra": 12607, "Ġtaste": 12608, "ĠDEBUG": 12609, "Thanks": 12610, "ĠRequired": 12611, "ova": 12612, "Media": 12613, "ĠsiÄĻ": 12614, "(base": 12615, "posts": 12616, "ĠfileName": 12617, "Checked": 12618, "Ġinterrupt": 12619, "Ġ()Ċ": 12620, "python": 12621, "pair": 12622, "Ġcircle": 12623, "Ġiniti": 12624, "_stream": 12625, "Ġcompreh": 12626, "learn": 12627, "Public": 12628, "Ġhumans": 12629, "Ġbringing": 12630, "ographic": 12631, "_layer": 12632, "-like": 12633, "upportInitialize": 12634, "idebar": 12635, "Ġvotes": 12636, "Ġdesired": 12637, "Mask": 12638, "Ġrelation": 12639, ".Instance": 12640, "Help": 12641, "Ġinspir": 12642, "ĠMono": 12643, "ViewModel": 12644, "ometimes": 12645, "ĠbackgroundColor": 12646, "Ġrotation": 12647, "Ġmari": 12648, "/test": 12649, "INSERT": 12650, "Star": 12651, "phy": 12652, "Ids": 12653, "_GET": 12654, "Ġincreases": 12655, "_close": 12656, "_FORM": 12657, "Ġ[âĢ¦]ĊĊ": 12658, "aza": 12659, "TEXT": 12660, "ĠÃ¤": 12661, "ĠVan": 12662, "Ġlights": 12663, "ĠGuide": 12664, "Ġdates": 12665, ".Command": 12666, "aman": 12667, "Ġpaths": 12668, ".edit": 12669, "ĉadd": 12670, "dx": 12671, "Ġreaction": 12672, "ĠBeach": 12673, ".getMessage": 12674, "Environment": 12675, "interest": 12676, "Ġminister": 12677, "Ġreaders": 12678, "ĉF": 12679, "Ġdomestic": 12680, "Ġfiled": 12681, "City": 12682, "Ġmapping": 12683, "ĠDES": 12684, "Ġrepair": 12685, "tics": 12686, "ixture": 12687, "Ġnombre": 12688, "zo": 12689, ".IsNullOr": 12690, "ĠCarolina": 12691, "ĠDer": 12692, "ĠEVENT": 12693, "Ġgest": 12694, "Ġhist": 12695, "resources": 12696, "Ġorphan": 12697, ".Are": 12698, "ĠInvest": 12699, "REFERRED": 12700, ".Logger": 12701, "ĠRoman": 12702, "Ġcultural": 12703, "feature": 12704, "pts": 12705, "bt": 12706, "Ġdot": 12707, "Ġdiam": 12708, "uspend": 12709, "_access": 12710, "(){čĊ": 12711, "Ġsurprise": 12712, "abil": 12713, "Ġvirt": 12714, "Ġbomb": 12715, "aron": 12716, "_IS": 12717, "Ġvast": 12718, "Real": 12719, "epend": 12720, "icted": 12721, "Ġpicked": 12722, "ĠFL": 12723, "ĠRepublicans": 12724, ".zeros": 12725, "Pressed": 12726, "sup": 12727, ".Core": 12728, "Microsoft": 12729, "services": 12730, "agic": 12731, "iveness": 12732, "Ġpdf": 12733, "Ġroles": 12734, "ras": 12735, "Ġindustrial": 12736, "Ġfacilities": 12737, "è¡": 12738, "Ġni": 12739, "Ġba": 12740, "Ġcls": 12741, "ĉB": 12742, "Customer": 12743, "Ġimagine": 12744, "Ġexports": 12745, "OutputStream": 12746, "Ġmad": 12747, "(de": 12748, "){ĊĊ": 12749, "Ġfro": 12750, "hus": 12751, "Ġcommittee": 12752, "ìĿ´": 12753, ",x": 12754, "Ġdivision": 12755, "(client": 12756, "(java": 12757, "optional": 12758, ".Equal": 12759, "ĠPhys": 12760, "ingu": 12761, "Ġsync": 12762, "ĠNa": 12763, "}}</": 12764, "OLUM": 12765, "itÃ©": 12766, "Ġidentifier": 12767, "owed": 12768, "Ġextent": 12769, "Ġhur": 12770, "VA": 12771, "clar": 12772, "Ġedges": 12773, "Criteria": 12774, "Ġindeed": 12775, "inherit": 12776, "ĠNight": 12777, "Ġreporting": 12778, "Ġencounter": 12779, "Ġkinds": 12780, "_pred": 12781, "Ġconsidering": 12782, ".(": 12783, "Ġprotein": 12784, "Typ": 12785, "gricult": 12786, "ĠBall": 12787, "@Component": 12788, "ĠEss": 12789, "ĠRub": 12790, "ulp": 12791, "itud": 12792, ".attr": 12793, "iente": 12794, "Ġspell": 12795, "ĠJoe": 12796, "ENTER": 12797, "_host": 12798, "itan": 12799, "Ġmatters": 12800, "Ġemergency": 12801, "uated": 12802, "ĠChat": 12803, "={'": 12804, "contri": 12805, "arker": 12806, "æĪĲ": 12807, "iper": 12808, "Ġscheme": 12809, "(stderr": 12810, "Ġ*(": 12811, "ceiver": 12812, ".column": 12813, "Ġmarked": 12814, "_ATTR": 12815, "Ġbodies": 12816, "ĠIMPLIED": 12817, "Gap": 12818, "ĠPOST": 12819, "Ġcorporate": 12820, "Ġdimension": 12821, "Ġcontrast": 12822, "erview": 12823, "ĠERROR": 12824, "Ġcapable": 12825, "Ġadvertising": 12826, "urchase": 12827, "ĠPA": 12828, "ĠFrancisco": 12829, "Ġfacing": 12830, "ãĢĮ": 12831, "git": 12832, "Ġbeer": 12833, "Ġsky": 12834, "download": 12835, "ĠCur": 12836, "mc": 12837, "anny": 12838, ".floor": 12839, "Ġcriteria": 12840, "ĠparseInt": 12841, "`,Ċ": 12842, "Ġaspect": 12843, "Ġbundle": 12844, "Could": 12845, "Ġtank": 12846, "-id": 12847, "Ġhurt": 12848, "Ġbroadcast": 12849, "OKEN": 12850, "ownt": 12851, "nullable": 12852, "Cap": 12853, "Ġalcohol": 12854, "ĠColl": 12855, "ĠHelper": 12856, "ĠAf": 12857, ".method": 12858, "Ġplanned": 12859, "pler": 12860, "ĠSite": 12861, "Ġresc": 12862, "oment": 12863, "ĠJavaScript": 12864, "SERVER": 12865, "Ġrhs": 12866, "eres": 12867, "(\",": 12868, "ifi": 12869, ".fields": 12870, "Ġparking": 12871, "Ġisland": 12872, "Ġsister": 12873, "_Ċ": 12874, "Constraints": 12875, "ĠAust": 12876, "dim": 12877, "_points": 12878, "Ġgap": 12879, "_active": 12880, "Ġvoor": 12881, "ĠPO": 12882, "Bag": 12883, "-scale": 12884, "lambda": 12885, ".Dispose": 12886, "rule": 12887, "Ġowned": 12888, "ĠMedical": 12889, "entries": 12890, "Ġsolar": 12891, "Ġresulting": 12892, "Ġestimated": 12893, "Ġimproved": 12894, "Duration": 12895, "employee": 12896, "$.": 12897, "Actions": 12898, "Like": 12899, ",(": 12900, "(Request": 12901, "%s": 12902, ".Open": 12903, ")\"Ċ": 12904, "Ġpixel": 12905, "Ġadapter": 12906, "Ġrevenue": 12907, "ogram": 12908, "ĠLA": 12909, "ĠMachine": 12910, "ĠØ§": 12911, "Ġfle": 12912, "Ġbike": 12913, "Insets": 12914, "Ġdisp": 12915, "Ġconsistent": 12916, "aÃ§Ã£o": 12917, "gender": 12918, "ĠThose": 12919, "perience": 12920, ".BackColor": 12921, ".play": 12922, "Ġrush": 12923, "Ġaxios": 12924, "Ġneck": 12925, "_mem": 12926, ".PREFERRED": 12927, "_first": 12928, "CB": 12929,
[...]
